ATTRIBUTE_ALIGNED16 unsigned char kws_weight[KWS_WEIGHT_SIZE] = {
0x52, 0x41, 0x54, 0x57, 0x20, 0x00, 0x00, 0x00, 0x18, 0x01, 0x00, 0x00, 0x40, 0x01, 0x00, 0x00,
0xC0, 0x31, 0x00, 0x00, 0x20, 0x54, 0x00, 0x00, 0x00, 0x00, 0x00, 0x00, 0x00, 0x00, 0x00, 0x00,
0x10, 0x00, 0x00, 0x00, 0x65, 0x00, 0x00, 0x00, 0x10, 0x00, 0x00, 0x00, 0x30, 0x00, 0x00, 0x00,
0x08, 0x00, 0x00, 0x00, 0x02, 0x00, 0x00, 0x00, 0x01, 0x00, 0x00, 0x00, 0x0D, 0x00, 0x00, 0x00,
0x0F, 0x00, 0x00, 0x00, 0x0F, 0x00, 0x00, 0x00, 0x0C, 0x00, 0x00, 0x00, 0x10, 0x00, 0x00, 0x00,
0x30, 0x00, 0x00, 0x00, 0x20, 0x00, 0x00, 0x00, 0x18, 0x00, 0x00, 0x00, 0x04, 0x00, 0x00, 0x00,
0x02, 0x00, 0x00, 0x00, 0x01, 0x00, 0x00, 0x00, 0x0C, 0x00, 0x00, 0x00, 0x0F, 0x00, 0x00, 0x00,
0x0F, 0x00, 0x00, 0x00, 0x0E, 0x00, 0x00, 0x00, 0x20, 0x00, 0x00, 0x00, 0x20, 0x00, 0x00, 0x00,
0x06, 0x00, 0x00, 0x00, 0x0F, 0x00, 0x00, 0x00, 0x0E, 0x00, 0x00, 0x00, 0x20, 0x00, 0x00, 0x00,
0x20, 0x00, 0x00, 0x00, 0x06, 0x00, 0x00, 0x00, 0x0F, 0x00, 0x00, 0x00, 0x0E, 0x00, 0x00, 0x00,
0x40, 0x00, 0x00, 0x00, 0x02, 0x00, 0x00, 0x00, 0x07, 0x00, 0x00, 0x00, 0x15, 0x00, 0x00, 0x00,
0x0C, 0x00, 0x00, 0x00, 0x00, 0x08, 0x00, 0x00, 0x10, 0x00, 0x00, 0x00, 0x00, 0x08, 0x00, 0x00,
0x20, 0x00, 0x00, 0x00, 0x40, 0x00, 0x00, 0x00, 0x20, 0x00, 0x00, 0x00, 0x20, 0x00, 0x00, 0x00,
0x20, 0x00, 0x00, 0x00, 0x00, 0x04, 0x00, 0x00, 0x00, 0x04, 0x00, 0x00, 0x00, 0x04, 0x00, 0x00,
0x00, 0x04, 0x00, 0x00, 0x00, 0x04, 0x00, 0x00, 0x00, 0x04, 0x00, 0x00, 0x20, 0x00, 0x00, 0x00,
0x20, 0x00, 0x00, 0x00, 0x20, 0x00, 0x00, 0x00, 0x00, 0x04, 0x00, 0x00, 0x00, 0x04, 0x00, 0x00,
0x00, 0x04, 0x00, 0x00, 0x00, 0x04, 0x00, 0x00, 0x00, 0x04, 0x00, 0x00, 0x00, 0x04, 0x00, 0x00,
0x80, 0x00, 0x00, 0x00, 0x02, 0x00, 0x00, 0x00, 0x80, 0x3E, 0x00, 0x00, 0x00, 0x02, 0x00, 0x00,
0x28, 0x00, 0x00, 0x00, 0xD2, 0x0F, 0x00, 0x00, 0x00, 0x02, 0x00, 0x00, 0x00, 0x01, 0x00, 0x00,
0x28, 0x00, 0x00, 0x00, 0x10, 0x00, 0x00, 0x00, 0x0F, 0x00, 0x00, 0x00, 0x00, 0x00, 0x00, 0x00,
0xF4, 0xF8, 0xF2, 0x4A, 0x03, 0x38, 0xFB, 0x7F, 0xBC, 0x0D, 0x28, 0xE0, 0x66, 0x64, 0x5C, 0xE7,
0x19, 0x2C, 0x2B, 0xD3, 0xEC, 0x56, 0x53, 0x1C, 0x2B, 0x2E, 0x34, 0x78, 0xF9, 0x14, 0xEB, 0xC8,
0x5A, 0xAE, 0xE3, 0xF8, 0x30, 0x12, 0x19, 0x13, 0x2B, 0x7B, 0xEC, 0xF5, 0x38, 0xEA, 0xE3, 0x0E,
0x4E, 0x02, 0x61, 0x0E, 0x7F, 0x02, 0xDB, 0xD9, 0x27, 0xFB, 0xD2, 0x2C, 0x45, 0xC4, 0x07, 0x26,
0xA8, 0xD7, 0x26, 0x2A, 0xED, 0xCB, 0xD0, 0xEF, 0xC7, 0x27, 0x1E, 0xDA, 0xE4, 0xED, 0x13, 0x18,
0xDB, 0x67, 0xFD, 0xBC, 0xC6, 0xB3, 0x2F, 0xF6, 0x42, 0x47, 0x1E, 0xBF, 0xF7, 0x2D, 0xFD, 0x29,
0x08, 0x0A, 0xF5, 0x68, 0x1A, 0x27, 0x54, 0x04, 0xD2, 0xF5, 0x12, 0x2F, 0xFB, 0xD3, 0x4D, 0xF8,
0x05, 0x2D, 0xF2, 0xFC, 0x93, 0x3F, 0xF6, 0xE1, 0xF1, 0x53, 0xE9, 0xD8, 0x4C, 0x10, 0xEE, 0x11,
0xA2, 0x98, 0x32, 0xDB, 0xBA, 0xD7, 0x44, 0x02, 0xCF, 0xD7, 0xCB, 0xD3, 0xCB, 0x1D, 0x27, 0xDA,
0xF8, 0x06, 0x09, 0xC6, 0x9A, 0xB5, 0x80, 0x1B, 0x40, 0x14, 0xBF, 0xE6, 0xF3, 0xFB, 0xC8, 0xCA,
0xEF, 0x68, 0xF9, 0x2F, 0x15, 0xE9, 0xE3, 0x00, 0x0E, 0x70, 0xE8, 0x02, 0xF0, 0xF1, 0x06, 0x24,
0x28, 0x32, 0x05, 0x22, 0x0A, 0xF2, 0x22, 0xF9, 0xEC, 0x53, 0xC0, 0xC8, 0xDB, 0xE1, 0x11, 0xF9,
0x53, 0x1F, 0xCA, 0x63, 0x1A, 0x4F, 0xDA, 0x00, 0x15, 0x63, 0x27, 0xD7, 0xE5, 0x03, 0x20, 0x1C,
0xDA, 0x2F, 0xCF, 0xF7, 0xF8, 0xFB, 0x00, 0xBC, 0xB3, 0xFB, 0x33, 0xC2, 0x7F, 0x1B, 0x19, 0xEA,
0x24, 0x3A, 0x44, 0xAD, 0xC9, 0xCC, 0xAE, 0xB7, 0x9A, 0x03, 0x0A, 0x53, 0x15, 0x60, 0xDB, 0x2B,
0x2F, 0xD5, 0xE2, 0xC8, 0x06, 0xD2, 0xC7, 0xB0, 0xC4, 0x2D, 0xFE, 0xA4, 0xEE, 0x1A, 0xD7, 0x0D,
0x22, 0x19, 0xF4, 0x24, 0x0F, 0x31, 0x9B, 0x01, 0xF5, 0x13, 0xE0, 0x09, 0x31, 0x7F, 0x54, 0xF4,
0xBB, 0x57, 0xC3, 0x32, 0x27, 0x11, 0x14, 0xF7, 0x2A, 0xED, 0xE0, 0x0C, 0x53, 0x16, 0xED, 0x45,
0x3C, 0x7C, 0x26, 0x50, 0x45, 0x65, 0xD4, 0x1E, 0x59, 0xEE, 0x5A, 0x57, 0x49, 0x46, 0x01, 0xCC,
0xE4, 0xE9, 0x1F, 0xD9, 0xF6, 0x49, 0x0D, 0xB1, 0xEB, 0x3B, 0xEE, 0xF8, 0x33, 0x68, 0x2B, 0xEF,
0xFF, 0x05, 0x34, 0x08, 0xFD, 0x55, 0x0E, 0x80, 0x23, 0xF0, 0x0A, 0x17, 0x43, 0xFB, 0x06, 0xE6,
0xCB, 0x3C, 0x38, 0x5E, 0xE8, 0xDC, 0xFF, 0xE0, 0xE5, 0xE3, 0xC7, 0x3B, 0xD9, 0xEE, 0x12, 0x08,
0xED, 0x36, 0x30, 0x5F, 0xB1, 0xFA, 0xF2, 0x09, 0x5A, 0x2D, 0xE3, 0x5F, 0x45, 0xB2, 0x5D, 0x3B,
0xDE, 0xFB, 0x2E, 0x02, 0xDE, 0x78, 0x4A, 0x3D, 0x3F, 0xE6, 0x3B, 0x16, 0xF8, 0xC1, 0x20, 0x08,
0x3B, 0xC2, 0x3D, 0xD2, 0x20, 0xEE, 0x6E, 0x09, 0x6C, 0x6E, 0xE4, 0x26, 0x17, 0x4F, 0x1B, 0x0D,
0xF2, 0x30, 0x33, 0xDA, 0x76, 0x5D, 0x23, 0xC7, 0xC9, 0xFD, 0xED, 0x29, 0x1A, 0xF3, 0xFC, 0xE1,
0x36, 0xFB, 0xDE, 0xDC, 0x7C, 0x2A, 0x1C, 0xF5, 0x05, 0x4D, 0x5E, 0xF1, 0x06, 0xC9, 0x34, 0x16,
0x1D, 0x07, 0x47, 0xE0, 0xE7, 0x3A, 0x12, 0x2A, 0x4A, 0x15, 0xF2, 0xDA, 0x12, 0x0B, 0x43, 0x2E,
0xEF, 0x54, 0x09, 0xE9, 0x56, 0xEB, 0x4A, 0x84, 0xE0, 0x48, 0x9A, 0xDB, 0x49, 0x10, 0x0C, 0xF7,
0xC7, 0x12, 0xDD, 0xB3, 0x10, 0x1F, 0x08, 0xDD, 0xD7, 0xDC, 0xF6, 0xEC, 0xCF, 0xD1, 0xEB, 0xFF,
0x38, 0xED, 0x4C, 0x23, 0x38, 0x0F, 0x2B, 0x1A, 0x47, 0x1D, 0xC7, 0x52, 0x2A, 0x37, 0x05, 0x30,
0x55, 0xD0, 0x19, 0xEA, 0x25, 0xEE, 0xE2, 0x13, 0xD5, 0xB4, 0xF9, 0x14, 0xD0, 0x95, 0x0A, 0x01,
0x2B, 0xF6, 0x7F, 0x76, 0xF2, 0xBB, 0x7D, 0x1C, 0xE4, 0xF5, 0xBC, 0x36, 0x25, 0xF7, 0x18, 0xF4,
0xD9, 0x02, 0xF2, 0x6B, 0xCB, 0x34, 0x13, 0x4F, 0x26, 0x30, 0x25, 0xEA, 0xCC, 0xFA, 0x3B, 0xD5,
0x01, 0xD9, 0x4A, 0x47, 0x47, 0xAB, 0x02, 0xB7, 0xC4, 0x7F, 0xFA, 0xE5, 0x13, 0xC0, 0x39, 0xCE,
0x9A, 0x38, 0x24, 0xFB, 0xE1, 0x33, 0x0C, 0x61, 0x13, 0x20, 0xBA, 0x81, 0x08, 0x02, 0x33, 0x06,
0xE4, 0x27, 0xAA, 0xE9, 0xE1, 0x01, 0x38, 0x06, 0xDC, 0xE8, 0x0D, 0xC4, 0xC7, 0x12, 0x49, 0x3E,
0xFB, 0x0B, 0x11, 0x56, 0x19, 0x08, 0x50, 0xDE, 0x3E, 0x49, 0xF1, 0x08, 0xE9, 0xE1, 0x03, 0x02,
0x00, 0xD9, 0x93, 0x4B, 0xDC, 0xE0, 0x25, 0xCB, 0xC5, 0xB1, 0xD0, 0xEC, 0x1D, 0xFB, 0x32, 0x63,
0x27, 0x03, 0xD5, 0xED, 0xC4, 0x20, 0x16, 0xF7, 0xFF, 0xF6, 0x2E, 0xDA, 0xE3, 0xAF, 0x0A, 0x36,
0x27, 0xD6, 0x12, 0xD3, 0x49, 0x2B, 0x65, 0x06, 0x1A, 0x32, 0xC2, 0xE2, 0x01, 0x1B, 0x3B, 0xC9,
0x21, 0x7C, 0x09, 0x1D, 0xB0, 0x22, 0x7F, 0x2B, 0x1D, 0xFF, 0xDE, 0x19, 0x10, 0xC7, 0x34, 0xF5,
0x28, 0xF6, 0x7F, 0x2B, 0x3B, 0xF5, 0x3A, 0x66, 0x15, 0xE8, 0xD8, 0x24, 0x7F, 0x7D, 0x4C, 0xDC,
0x24, 0xE1, 0x08, 0xA5, 0x05, 0x7F, 0xFF, 0x09, 0xC9, 0x04, 0x24, 0xF6, 0x48, 0x09, 0x19, 0x22,
0xFA, 0x1D, 0x2F, 0x47, 0x00, 0x30, 0x09, 0x36, 0xFA, 0xCE, 0x27, 0x0A, 0x05, 0x20, 0x9B, 0xD5,
0x00, 0xF5, 0xFA, 0xAF, 0xCE, 0xC1, 0x02, 0x30, 0x57, 0xE3, 0x11, 0xEA, 0x49, 0xE7, 0x4A, 0xE9,
0xE8, 0xD4, 0xEA, 0x36, 0x25, 0xC2, 0xFF, 0xE0, 0xCB, 0x02, 0xCB, 0x22, 0xFB, 0x24, 0x4C, 0xEB,
0xA0, 0xEC, 0x37, 0xE2, 0x20, 0xCE, 0xFD, 0x09, 0xFD, 0x09, 0xDF, 0xFD, 0xE3, 0x3C, 0x59, 0xB5,
0x1F, 0xCC, 0xC9, 0x22, 0x10, 0x0B, 0x21, 0xF8, 0x0F, 0xE1, 0x1B, 0x3B, 0xF3, 0x42, 0xF5, 0x32,
0x18, 0x5D, 0x6B, 0x37, 0x0A, 0x4D, 0x35, 0x1F, 0x3E, 0x2E, 0x20, 0xC4, 0x3B, 0xE8, 0x7F, 0x00,
0x20, 0x41, 0x59, 0x70, 0xB8, 0xDE, 0xB0, 0x40, 0xF6, 0xAD, 0x1E, 0x02, 0xBD, 0x27, 0x3C, 0xC4,
0x49, 0xC3, 0x32, 0x1E, 0x14, 0x16, 0xF7, 0xB7, 0x1A, 0xB8, 0x79, 0xE9, 0x26, 0xCE, 0x4A, 0xC5,
0xCC, 0xFB, 0xE9, 0x43, 0x36, 0x70, 0xC8, 0x58, 0xFC, 0xFA, 0xAF, 0xA5, 0x0A, 0x21, 0xFF, 0x06,
0x43, 0x4F, 0x09, 0x53, 0x2A, 0xC0, 0xF7, 0x27, 0xED, 0x02, 0xC3, 0x30, 0x08, 0xF7, 0x49, 0x0E,
0x55, 0x11, 0xF6, 0xDB, 0xA6, 0xEF, 0x1C, 0x01, 0xF4, 0x13, 0x92, 0xBE, 0x04, 0xED, 0x70, 0x2B,
0x18, 0x7A, 0xC5, 0xE5, 0x19, 0xB3, 0x0D, 0x46, 0x23, 0x26, 0xF2, 0xA4, 0xE8, 0x2B, 0x29, 0x0F,
0x09, 0xF1, 0x1F, 0x12, 0x27, 0xEE, 0x1A, 0x1F, 0x03, 0xAA, 0xCE, 0x3F, 0x05, 0x0B, 0x5F, 0x45,
0x1E, 0xC2, 0x01, 0x80, 0x02, 0x1D, 0x03, 0xDC, 0xDC, 0xDC, 0xF8, 0xFF, 0xEF, 0xDA, 0x16, 0x0B,
0x07, 0x2D, 0x3A, 0x3F, 0x53, 0x18, 0xF4, 0xA3, 0xC1, 0x7F, 0x1D, 0x38, 0x32, 0xFF, 0x0E, 0xC5,
0x03, 0x34, 0x76, 0xD8, 0xF2, 0x25, 0x65, 0x40, 0xFE, 0x45, 0x18, 0x1E, 0xED, 0xF6, 0x20, 0xAB,
0xA7, 0xF2, 0xE9, 0xBB, 0x2A, 0xCE, 0xDC, 0xF8, 0x36, 0x3A, 0x08, 0xDA, 0xEA, 0xCB, 0xEF, 0xCB,
0xB4, 0x30, 0x51, 0xC0, 0xF4, 0xE4, 0xEA, 0x43, 0x78, 0x92, 0xF3, 0x1F, 0x12, 0x39, 0xE4, 0x22,
0x4C, 0x6D, 0x2C, 0x13, 0x12, 0xF2, 0x16, 0xF6, 0x28, 0xDF, 0xC2, 0xBE, 0xFB, 0x32, 0x34, 0x00,
0xFC, 0x14, 0x40, 0xC1, 0xFB, 0x36, 0xCC, 0xEF, 0xCA, 0x2F, 0xFD, 0x54, 0x3A, 0xBB, 0x32, 0xE2,
0x3B, 0x99, 0x48, 0xFE, 0x3B, 0xAA, 0xF8, 0x2B, 0xEA, 0x31, 0xEF, 0x01, 0x25, 0x35, 0x35, 0xDC,
0x06, 0x0B, 0x0E, 0xF2, 0x15, 0x26, 0x23, 0x29, 0xE3, 0x1B, 0x01, 0xEC, 0x11, 0xD8, 0xEF, 0x1E,
0xFF, 0xFF, 0xFA, 0xFA, 0xE8, 0x2E, 0x38, 0xD4, 0x22, 0x11, 0x0F, 0xEE, 0xDE, 0xD8, 0x15, 0x05,
0xE1, 0xF0, 0x1F, 0x26, 0xE1, 0xFC, 0x07, 0x49, 0xF6, 0x01, 0xE3, 0xCE, 0x24, 0x1C, 0xFD, 0x01,
0x29, 0x15, 0x31, 0xE2, 0xEC, 0xDE, 0x02, 0x0C, 0xF2, 0xEE, 0x45, 0x46, 0xDB, 0x12, 0xEE, 0x12,
0x17, 0xF7, 0x0D, 0xF5, 0x01, 0x04, 0xEA, 0x0E, 0x42, 0x04, 0xCF, 0x1D, 0x15, 0xEC, 0x20, 0x2B,
0x36, 0xEA, 0xC8, 0x0C, 0x02, 0xF4, 0x2D, 0xFE, 0x20, 0xAF, 0x1D, 0xF8, 0x1F, 0xF6, 0xC4, 0xEE,
0xFF, 0x0E, 0xAB, 0xCD, 0x00, 0xF0, 0x17, 0xBF, 0xE5, 0x3D, 0xE2, 0xF8, 0x2C, 0xE8, 0xFD, 0x1F,
0x1B, 0x55, 0xFE, 0x17, 0xD4, 0x18, 0x02, 0xF9, 0xE8, 0xF9, 0x07, 0x3B, 0xF4, 0xE2, 0x10, 0x1B,
0x1A, 0xBF, 0x17, 0x11, 0xFF, 0x19, 0x00, 0x1B, 0x18, 0xFE, 0xF0, 0xE2, 0x03, 0x18, 0xEE, 0x28,
0xD6, 0x29, 0x21, 0xF7, 0xDB, 0x24, 0xF4, 0x32, 0x13, 0xED, 0x19, 0xFC, 0xE8, 0x29, 0xD2, 0xF4,
0x07, 0xEF, 0xD7, 0xFD, 0xF1, 0x07, 0xFE, 0xF8, 0x10, 0xD3, 0x3F, 0xF0, 0x0D, 0xDF, 0xAA, 0x2D,
0x13, 0xF9, 0xCB, 0x08, 0xFF, 0x03, 0x34, 0xFA, 0xC7, 0xCA, 0xEC, 0xE2, 0x12, 0x19, 0x0C, 0x3B,
0x54, 0xDC, 0x05, 0xEC, 0xF2, 0x16, 0x12, 0x01, 0xE8, 0x30, 0x07, 0x0F, 0x0D, 0x04, 0xFD, 0x25,
0xE3, 0x1C, 0x80, 0x10, 0xDA, 0xF2, 0x14, 0xEF, 0xD3, 0xFB, 0xF0, 0xD1, 0x17, 0x06, 0x01, 0x01,
0x1A, 0x0C, 0xB5, 0xF5, 0x21, 0xFF, 0xF9, 0x4F, 0xF2, 0x28, 0xF4, 0x39, 0xC7, 0xEA, 0xD9, 0xBD,
0xB6, 0x02, 0xF7, 0x0B, 0x0D, 0xE6, 0xEA, 0xA9, 0x08, 0x47, 0xF1, 0xD7, 0x08, 0xD3, 0x18, 0xEE,
0xEC, 0x25, 0x22, 0x0D, 0xB4, 0x11, 0xE9, 0x0F, 0x07, 0x1B, 0xFE, 0xFE, 0xE8, 0x15, 0x0C, 0x00,
0x1F, 0x1C, 0xE4, 0x51, 0xD1, 0x01, 0x9C, 0x12, 0x15, 0x0C, 0x39, 0xE6, 0xCA, 0x19, 0x23, 0xFE,
0x19, 0x04, 0x09, 0x18, 0x1D, 0xFD, 0xE8, 0x00, 0x12, 0x0B, 0xC3, 0x08, 0x0A, 0xF0, 0xAB, 0x27,
0xF4, 0x2E, 0xC9, 0xFC, 0xE1, 0x09, 0x18, 0xF5, 0xD7, 0x21, 0x09, 0xE2, 0xD7, 0x23, 0x1B, 0xFA,
0x1B, 0xD0, 0xFC, 0x37, 0x9E, 0x10, 0xEE, 0x28, 0x08, 0x1E, 0x3F, 0xDE, 0x07, 0x37, 0x01, 0xD3,
0x21, 0xE2, 0xBC, 0xD8, 0x09, 0x22, 0xCB, 0xF8, 0x2E, 0xFF, 0x23, 0x23, 0xF2, 0xDF, 0xE1, 0xED,
0xF3, 0xF1, 0xE6, 0xED, 0xD9, 0x3F, 0x63, 0xD4, 0xE5, 0x1E, 0xBD, 0xF7, 0x12, 0xE0, 0xEC, 0x23,
0xF3, 0x0D, 0xD9, 0x0F, 0x96, 0xE1, 0xDF, 0xD6, 0x0E, 0x00, 0xF5, 0xE9, 0x35, 0x05, 0x26, 0x43,
0x18, 0xED, 0xC8, 0xEE, 0x22, 0xE4, 0x08, 0x22, 0xBB, 0x24, 0x18, 0xF2, 0xBE, 0x01, 0x0F, 0x11,
0xFB, 0xD9, 0x16, 0xFD, 0xF3, 0xD6, 0xF8, 0x2E, 0xE0, 0x10, 0xE7, 0x1F, 0x0D, 0x1E, 0x07, 0xDB,
0xE5, 0x00, 0xE5, 0xC5, 0x08, 0x28, 0xF3, 0xDE, 0xD6, 0x33, 0x08, 0xDF, 0x26, 0x40, 0xEA, 0x08,
0xC9, 0x04, 0x04, 0xEB, 0xC3, 0x1B, 0xFD, 0x3B, 0x68, 0x0F, 0x26, 0x18, 0xF3, 0xDE, 0x04, 0xE1,
0x0C, 0xF8, 0x03, 0xF9, 0x30, 0xF7, 0xF6, 0xED, 0x0D, 0x17, 0xF9, 0x27, 0xED, 0x09, 0x03, 0x03,
0x13, 0xBE, 0x26, 0xD5, 0xE8, 0xF8, 0xF5, 0x0A, 0x2C, 0x07, 0x23, 0x27, 0xD3, 0xD7, 0xDD, 0xE6,
0x26, 0xF9, 0x0B, 0xFA, 0xD0, 0x47, 0xF5, 0xED, 0xE9, 0xB6, 0xCE, 0x18, 0x12, 0x10, 0xFE, 0x3E,
0xAA, 0x25, 0xEF, 0x3A, 0x01, 0x38, 0x35, 0x23, 0xE4, 0x07, 0x09, 0x1B, 0x11, 0x02, 0x05, 0x00,
0xC6, 0xFA, 0x2C, 0xFC, 0xEE, 0xD4, 0x24, 0x21, 0x4C, 0x0A, 0x0F, 0xE3, 0x0A, 0x0D, 0x4F, 0xDD,
0xBD, 0x0B, 0x16, 0xFA, 0x21, 0xF6, 0x53, 0xDC, 0xE9, 0x09, 0xE3, 0xEE, 0x16, 0x12, 0x28, 0x31,
0xC3, 0x00, 0x3E, 0x37, 0xFD, 0xD6, 0xAA, 0x18, 0x10, 0xA7, 0x0E, 0xB2, 0xD3, 0x0D, 0x25, 0xA9,
0x20, 0x0B, 0x05, 0x49, 0xBB, 0xF6, 0xF9, 0xFF, 0xF4, 0xF0, 0xF6, 0xF7, 0x10, 0x04, 0x4F, 0xED,
0x15, 0x08, 0xE1, 0x15, 0xF7, 0xDD, 0xF6, 0xDE, 0x10, 0x0E, 0x2B, 0x22, 0x04, 0x0A, 0x62, 0xD2,
0x28, 0xF5, 0xEA, 0xD9, 0x10, 0x12, 0xE2, 0x20, 0xF7, 0x35, 0xFC, 0x04, 0xE8, 0x03, 0xA8, 0xED,
0xFC, 0xEF, 0x24, 0x10, 0x1F, 0x45, 0x0D, 0x08, 0x2E, 0x2D, 0xD0, 0x29, 0xF7, 0x22, 0xDC, 0x06,
0x07, 0xF8, 0x08, 0xD6, 0xE9, 0x24, 0x08, 0x2C, 0xFE, 0xE3, 0x2D, 0xF3, 0xD4, 0x20, 0xE1, 0xFC,
0x02, 0x0B, 0xD5, 0x1F, 0xC2, 0xE9, 0xE2, 0x16, 0x10, 0x09, 0x31, 0xE7, 0x12, 0xF7, 0x48, 0xE8,
0x1E, 0x00, 0xF8, 0xF8, 0x24, 0x0C, 0x11, 0xD1, 0x17, 0x13, 0x53, 0x08, 0x96, 0xFD, 0x36, 0xD6,
0xFE, 0x3F, 0x2F, 0x39, 0xBC, 0x14, 0xBB, 0x35, 0xE6, 0xF1, 0x01, 0xC2, 0x17, 0x5A, 0x10, 0xCB,
0x4B, 0x0C, 0x03, 0x15, 0x28, 0xBE, 0x11, 0xD3, 0xDB, 0x12, 0x0C, 0x3D, 0xE1, 0x2E, 0x04, 0xDD,
0x04, 0xE8, 0xF2, 0xE5, 0xEB, 0x1F, 0xFC, 0xDF, 0x1C, 0xDD, 0xC5, 0x1E, 0x3D, 0x10, 0x20, 0xF8,
0xD7, 0x09, 0x1A, 0x23, 0x3B, 0xD5, 0xB7, 0xF8, 0xBB, 0x30, 0xF8, 0x50, 0x02, 0x04, 0xF4, 0xD3,
0xEA, 0x4C, 0xEE, 0xE3, 0xF1, 0xC9, 0x15, 0xE5, 0x16, 0xF2, 0xFA, 0x12, 0xBF, 0xFD, 0x37, 0xA3,
0xFE, 0xFD, 0x1B, 0x07, 0x29, 0x2D, 0x00, 0x12, 0x0A, 0xE4, 0x21, 0x05, 0xFE, 0x0F, 0xEA, 0x18,
0x00, 0x06, 0x05, 0x07, 0xF5, 0xD8, 0xF7, 0xDC, 0xF7, 0xED, 0x18, 0x12, 0xFB, 0xD5, 0xED, 0x11,
0x19, 0xDD, 0xFB, 0xEF, 0xF2, 0x10, 0x29, 0xF7, 0xFF, 0x07, 0x01, 0xF6, 0x15, 0xBE, 0x00, 0xD7,
0xA1, 0x28, 0x0B, 0xEB, 0xE3, 0x27, 0xE4, 0xF6, 0x03, 0x2A, 0x00, 0xE5, 0x46, 0xE5, 0xDF, 0x03,
0x07, 0x26, 0xEE, 0x06, 0xF0, 0x03, 0xDF, 0xF8, 0xF8, 0x22, 0xD2, 0xC6, 0x15, 0x9C, 0xED, 0x03,
0xF8, 0x1B, 0x09, 0x32, 0xD9, 0x03, 0xBF, 0x2B, 0x0F, 0x43, 0x07, 0x0C, 0xA3, 0x05, 0x3C, 0xBF,
0xFF, 0x30, 0xE0, 0x1C, 0x14, 0x20, 0xFD, 0x01, 0xFF, 0xF6, 0xFA, 0xFB, 0xF8, 0xD4, 0x19, 0x08,
0xC8, 0x01, 0x04, 0x59, 0xDD, 0xCF, 0x06, 0xCD, 0x18, 0x58, 0xF9, 0xE4, 0x04, 0x20, 0x04, 0x00,
0xDF, 0xB6, 0xE6, 0xE8, 0xE7, 0xF0, 0x1D, 0xED, 0x08, 0x1E, 0x20, 0xDB, 0x29, 0x16, 0xD4, 0xD8,
0xD7, 0x37, 0x07, 0xDA, 0x03, 0xF7, 0x16, 0x26, 0x0F, 0xE9, 0xE8, 0xF6, 0x27, 0xBF, 0x14, 0xF1,
0x3D, 0xFD, 0xBC, 0x03, 0xBE, 0xE6, 0xD4, 0xC2, 0xB9, 0x2B, 0x0C, 0x03, 0xBC, 0xED, 0x3E, 0x20,
0x5B, 0x57, 0x39, 0xED, 0xF0, 0x08, 0xCA, 0x19, 0x11, 0xF2, 0xFC, 0x08, 0x00, 0xBD, 0xD0, 0x2A,
0xFB, 0x32, 0xE0, 0x07, 0xDA, 0x12, 0xF8, 0xF6, 0xB9, 0xCC, 0xF9, 0xDF, 0xF0, 0x03, 0xC3, 0x2C,
0x22, 0xD5, 0x18, 0x2F, 0xFA, 0xF7, 0x09, 0x20, 0xDF, 0x27, 0x10, 0xBE, 0xCC, 0xFC, 0x0B, 0xCE,
0x49, 0x12, 0xE2, 0xCC, 0xEA, 0x1A, 0xF9, 0xE4, 0x0B, 0x2B, 0x2E, 0x12, 0x27, 0x00, 0xE4, 0x1C,
0x21, 0x03, 0xF0, 0xD1, 0x2C, 0xF7, 0x10, 0xDB, 0x0E, 0x06, 0xE1, 0x18, 0xF7, 0xE5, 0xB2, 0x1B,
0x06, 0x1E, 0x24, 0x0E, 0xEF, 0xEB, 0x05, 0x16, 0xF9, 0xD6, 0x00, 0x04, 0xE4, 0x02, 0xDC, 0x25,
0x31, 0x16, 0x0B, 0xF3, 0xC3, 0xD9, 0xE3, 0xCD, 0x0F, 0xFB, 0x50, 0x04, 0x09, 0xE2, 0x53, 0xCD,
0xFF, 0xC0, 0xD8, 0x19, 0xED, 0x06, 0x15, 0xF1, 0x27, 0x00, 0x38, 0xCF, 0xEE, 0xD8, 0xFD, 0xF7,
0xFD, 0xEB, 0xF9, 0xEB, 0x26, 0x0A, 0xE8, 0xF4, 0xEB, 0xEF, 0xC1, 0x06, 0x3E, 0x21, 0x22, 0x2B,
0xEA, 0xF4, 0x16, 0xF9, 0x40, 0xB0, 0xC4, 0x10, 0x26, 0xEC, 0x32, 0x40, 0x18, 0x13, 0x2C, 0xF4,
0xEF, 0x4E, 0x05, 0xC0, 0xFF, 0x24, 0xF7, 0x29, 0xD6, 0x0F, 0x01, 0x29, 0xB2, 0x03, 0x1E, 0xF5,
0x15, 0x08, 0xFC, 0x49, 0xCF, 0xF4, 0x0E, 0x03, 0x0C, 0x33, 0x06, 0x43, 0xFB, 0x05, 0x18, 0x02,
0xED, 0xD8, 0x15, 0x07, 0xDC, 0x4E, 0xE7, 0xCE, 0xFF, 0x53, 0xFE, 0x06, 0x33, 0x44, 0x3F, 0xFF,
0x3C, 0xD7, 0xA3, 0xE8, 0xD5, 0xAE, 0x10, 0xDF, 0x35, 0x41, 0x07, 0xEA, 0xF3, 0x09, 0xCD, 0x4C,
0x1E, 0xEE, 0xAF, 0xEA, 0x0D, 0x2A, 0x0C, 0xBC, 0x23, 0xD6, 0x2D, 0x20, 0x47, 0xB4, 0xF8, 0x01,
0x18, 0x3E, 0xE8, 0x2B, 0x4A, 0xD3, 0x4E, 0xED, 0xC4, 0x11, 0xD7, 0xF0, 0xEC, 0x28, 0x1A, 0xD7,
0x09, 0x26, 0x2B, 0x2F, 0xCE, 0x0B, 0x0E, 0x22, 0x3D, 0x3A, 0xDE, 0xA0, 0x30, 0x55, 0x1C, 0x3E,
0x05, 0xDA, 0x04, 0xEA, 0xA3, 0x0E, 0x0B, 0x08, 0x47, 0xC6, 0x2E, 0x00, 0x48, 0xDE, 0x10, 0xFD,
0xF4, 0xCA, 0xDD, 0xFC, 0xFF, 0xDB, 0xED, 0x24, 0x2B, 0x09, 0x38, 0x00, 0xF8, 0xE8, 0x29, 0xDD,
0xD2, 0x0E, 0x4E, 0x21, 0x11, 0x47, 0xBA, 0xEB, 0xF1, 0xFB, 0x30, 0x02, 0xC3, 0x2D, 0x3E, 0x26,
0xFF, 0xFB, 0x01, 0x3F, 0xF3, 0xD6, 0xD7, 0x0A, 0xF7, 0xD3, 0x22, 0xE6, 0xD5, 0x39, 0x31, 0xFA,
0xE2, 0xF9, 0x7F, 0xF2, 0x08, 0xEC, 0x29, 0x1B, 0xFC, 0x12, 0x3B, 0xEF, 0x18, 0x00, 0xFB, 0x02,
0x09, 0x2E, 0xED, 0xF7, 0x28, 0x05, 0x13, 0x12, 0x10, 0x37, 0xF9, 0xF2, 0xE6, 0x12, 0xDE, 0xEC,
0x11, 0x08, 0x08, 0x02, 0xED, 0xF9, 0x12, 0xDF, 0x03, 0xC8, 0xEB, 0x55, 0x48, 0x21, 0x03, 0x42,
0x15, 0xD0, 0xD2, 0xF9, 0x0C, 0x01, 0xE9, 0x1E, 0xDE, 0xF7, 0xEC, 0x3E, 0xD0, 0x28, 0x23, 0xF7,
0xCF, 0xF4, 0x35, 0x41, 0x18, 0xC4, 0xEB, 0xEF, 0x1C, 0xF8, 0xEF, 0x02, 0x0C, 0x26, 0x69, 0x27,
0x44, 0x01, 0x9C, 0xEF, 0x03, 0xFA, 0x20, 0x32, 0x88, 0xF4, 0xE3, 0x54, 0x08, 0xF9, 0x43, 0x0E,
0x0C, 0x09, 0x08, 0x14, 0x21, 0xD4, 0xDE, 0x62, 0x14, 0x20, 0xF4, 0x34, 0xF2, 0x6B, 0x02, 0x03,
0x00, 0x06, 0xEF, 0xF1, 0x3D, 0x17, 0x06, 0x15, 0xFA, 0x11, 0xD3, 0x43, 0x09, 0xD9, 0x08, 0xF4,
0xF9, 0xD3, 0x1E, 0x29, 0xFD, 0xDD, 0xDB, 0x06, 0x14, 0x61, 0xE5, 0xD6, 0x11, 0xEB, 0x4C, 0xF0,
0x0C, 0xF4, 0x21, 0x05, 0xCD, 0x13, 0xED, 0xDB, 0xCD, 0xF8, 0x24, 0x03, 0x08, 0x29, 0x56, 0x19,
0xCD, 0xE0, 0xD2, 0x02, 0x40, 0xFF, 0xE6, 0x11, 0x16, 0x28, 0x2F, 0xF7, 0xFB, 0xFC, 0x17, 0xD2,
0xD3, 0xFB, 0x3F, 0x04, 0x19, 0xE6, 0xF4, 0xEF, 0x01, 0x12, 0xF5, 0x04, 0x01, 0xFF, 0xE5, 0x0F,
0xFC, 0xF7, 0xE2, 0xD7, 0x36, 0xF9, 0x20, 0xE4, 0x2B, 0x4A, 0xED, 0x0A, 0xFC, 0xC9, 0x1A, 0xE1,
0xEA, 0xFA, 0x2B, 0x28, 0x30, 0x27, 0xEE, 0x4D, 0x72, 0xFB, 0x20, 0xF5, 0xFA, 0xD9, 0xD7, 0x08,
0x46, 0x0C, 0xE7, 0x03, 0x15, 0xDD, 0xDD, 0x13, 0xED, 0xFB, 0x01, 0x13, 0xF2, 0x1E, 0x00, 0x06,
0x07, 0x28, 0x00, 0x03, 0x28, 0xFD, 0x36, 0xC4, 0x8E, 0x1E, 0xFC, 0xFF, 0xF5, 0xDB, 0x1D, 0xDA,
0x39, 0xFD, 0xD5, 0x07, 0xF6, 0xEC, 0x29, 0xE8, 0x05, 0x36, 0xDD, 0x46, 0x20, 0x00, 0x74, 0x53,
0xF6, 0x31, 0x66, 0x2C, 0x3F, 0xEB, 0x1A, 0x04, 0xDC, 0xD9, 0x37, 0xF7, 0xED, 0x1F, 0x14, 0x4F,
0x09, 0xDB, 0x24, 0x16, 0xFA, 0xFA, 0x15, 0x20, 0xF2, 0x1E, 0xD3, 0xEB, 0x14, 0x0D, 0x15, 0x0C,
0xE8, 0x26, 0x32, 0x02, 0x0D, 0x4D, 0x1A, 0x37, 0x03, 0x0D, 0xEB, 0xC9, 0x40, 0xE1, 0x28, 0x24,
0xBD, 0xF4, 0x08, 0x4F, 0x6D, 0x8C, 0x3E, 0xF6, 0xCA, 0x19, 0x19, 0xEC, 0xEF, 0x4B, 0x3E, 0x18,
0x10, 0xEC, 0x0A, 0x11, 0xEB, 0x05, 0xAE, 0x36, 0xEC, 0xFD, 0x09, 0xB4, 0x08, 0x29, 0x1F, 0xDA,
0x33, 0x07, 0xB6, 0x35, 0xF4, 0xC7, 0x31, 0x25, 0xF6, 0x43, 0x56, 0x30, 0xF2, 0x10, 0x0C, 0xFB,
0x00, 0xD4, 0xF7, 0xF8, 0x05, 0x26, 0x1A, 0xF3, 0x26, 0xDB, 0x08, 0xD0, 0x16, 0xC5, 0x12, 0xDD,
0xE1, 0x54, 0x0F, 0x03, 0xF4, 0xEA, 0xDD, 0xFC, 0xF2, 0xE1, 0xED, 0xCD, 0xCC, 0x07, 0x21, 0x0E,
0xFE, 0x04, 0xF8, 0xD2, 0x22, 0xBE, 0x19, 0xF6, 0x0C, 0x00, 0xD6, 0xF7, 0xFD, 0xE7, 0xCD, 0xD3,
0x4D, 0x54, 0xF5, 0x12, 0xBB, 0xF9, 0x3F, 0xED, 0x31, 0xD0, 0x1A, 0x07, 0xF5, 0x0B, 0x1A, 0xDD,
0x24, 0x1B, 0x03, 0x0A, 0xEE, 0x3D, 0x1F, 0x00, 0x2B, 0x0A, 0xC4, 0xDF, 0x37, 0x1B, 0x01, 0x05,
0xF9, 0x26, 0x04, 0x1C, 0x13, 0xF3, 0xFF, 0xF4, 0xCC, 0x27, 0x1E, 0x0C, 0xAA, 0xFE, 0x0C, 0xF1,
0x0B, 0x3E, 0x54, 0x02, 0xE9, 0xF3, 0xF1, 0x09, 0x42, 0x97, 0xDE, 0x2A, 0xBE, 0x2F, 0x1F, 0xCB,
0x0D, 0x15, 0x11, 0xCF, 0x21, 0x22, 0x10, 0xED, 0x5F, 0x20, 0x74, 0x53, 0x00, 0xE3, 0xDE, 0x15,
0xF7, 0x25, 0xBB, 0x47, 0x29, 0x66, 0x23, 0xF4, 0x32, 0x08, 0xC3, 0x1B, 0xE8, 0x03, 0x2C, 0x05,
0x15, 0xAD, 0x15, 0xDF, 0x26, 0xC8, 0x0B, 0xD3, 0x1D, 0xFC, 0x31, 0xB7, 0x17, 0x00, 0xE9, 0xFA,
0xE2, 0x1F, 0x0C, 0xC2, 0xF8, 0x34, 0x1D, 0xE5, 0x15, 0x24, 0xD2, 0xCB, 0x37, 0xAA, 0xE2, 0x1E,
0x0E, 0x07, 0xD2, 0x0E, 0xFF, 0x39, 0x4B, 0xFE, 0x0E, 0x1A, 0xDF, 0xD8, 0x33, 0xF1, 0x21, 0x14,
0xE0, 0xFD, 0x3A, 0x30, 0xCF, 0x16, 0xF0, 0x50, 0x10, 0x3F, 0x0B, 0xF6, 0x0B, 0x11, 0x3C, 0x0E,
0x00, 0x53, 0x11, 0x66, 0x01, 0xF2, 0xC5, 0x50, 0xDF, 0xF0, 0xC8, 0x7F, 0x24, 0x16, 0x06, 0x10,
0x1C, 0xE7, 0xF0, 0xE3, 0xEB, 0xF0, 0x18, 0xFD, 0x01, 0x38, 0x43, 0x0D, 0x07, 0xDE, 0x07, 0xE6,
0x19, 0xBC, 0x7F, 0xE6, 0xE6, 0x07, 0x23, 0x4D, 0x05, 0x0C, 0xF3, 0x41, 0xFD, 0xFB, 0xF2, 0xFB,
0x01, 0x01, 0xC5, 0xF2, 0x00, 0x21, 0x01, 0x1E, 0x02, 0x1B, 0x05, 0x00, 0x17, 0xE4, 0xF0, 0xED,
0x14, 0xC7, 0xF9, 0xD2, 0x07, 0xEB, 0x47, 0xBB, 0x05, 0xD3, 0x42, 0xDD, 0x11, 0xF1, 0xEF, 0x05,
0x3C, 0xE1, 0xEB, 0xEF, 0xF0, 0xEC, 0x2D, 0xB7, 0xD9, 0x15, 0xBD, 0x34, 0xF1, 0x08, 0xEA, 0xEF,
0xFE, 0xDD, 0x48, 0xFC, 0xFB, 0xF0, 0x0B, 0xEC, 0x0C, 0xED, 0x56, 0x1A, 0x2B, 0xEF, 0x03, 0xE1,
0xFD, 0x4E, 0xDE, 0x32, 0x60, 0xFE, 0x20, 0x43, 0xFE, 0x0E, 0xF7, 0x3C, 0x03, 0xED, 0x36, 0xD7,
0xF7, 0x07, 0x00, 0x43, 0x25, 0x40, 0x26, 0x12, 0x22, 0x1B, 0xF3, 0x21, 0x1B, 0xDA, 0xFE, 0x0E,
0xE1, 0xF7, 0x34, 0xED, 0xE6, 0x1E, 0xD0, 0x6E, 0x14, 0xA9, 0x29, 0xC3, 0xD2, 0x26, 0x14, 0xE7,
0x16, 0x35, 0xD0, 0x03, 0xF4, 0x03, 0xBA, 0xFD, 0xEC, 0xFE, 0xF1, 0xD6, 0xFA, 0xF9, 0xF0, 0xE7,
0x2F, 0x2C, 0x5B, 0xEF, 0xC5, 0x29, 0x10, 0xD5, 0x01, 0x10, 0xD1, 0xCB, 0x3D, 0xDE, 0xBE, 0xDB,
0x05, 0xF9, 0xD8, 0x00, 0x05, 0x1D, 0x28, 0x5C, 0xE8, 0x40, 0xE8, 0x35, 0xD3, 0x30, 0xEA, 0xF2,
0xED, 0x39, 0xE6, 0xE9, 0x0E, 0xF1, 0xE2, 0xF1, 0x01, 0x38, 0xE3, 0xDC, 0xEF, 0xF6, 0x06, 0xF9,
0x16, 0xE3, 0x1D, 0x0E, 0xD0, 0xF6, 0xDD, 0xF8, 0x08, 0x09, 0xE1, 0x08, 0xF2, 0x1A, 0x07, 0x16,
0xF0, 0xBB, 0x26, 0x08, 0x08, 0xC9, 0xAC, 0x0F, 0xF6, 0xFD, 0xFE, 0x42, 0x19, 0xE4, 0x24, 0x31,
0x05, 0x0A, 0xFF, 0x35, 0xF8, 0xFB, 0x25, 0x04, 0xE1, 0x21, 0xEF, 0x03, 0x4B, 0xE7, 0x04, 0x06,
0x01, 0xFA, 0x05, 0xF0, 0xF8, 0x3B, 0x00, 0x12, 0xF7, 0xE1, 0x20, 0x27, 0xE4, 0xC6, 0x06, 0xFA,
0x31, 0x17, 0xD0, 0xF4, 0xB6, 0x0A, 0xF9, 0xFF, 0xF9, 0x27, 0xCE, 0xE0, 0x3B, 0xD1, 0xC2, 0xF6,
0x16, 0x4E, 0xD9, 0xC7, 0xC8, 0x28, 0x2D, 0x3C, 0xD9, 0xCD, 0xF0, 0x0F, 0xF3, 0x10, 0xD1, 0xA8,
0x14, 0x39, 0x14, 0x2D, 0x1A, 0xF0, 0xE4, 0x2E, 0xF3, 0xD3, 0x6F, 0xFC, 0xE7, 0xE3, 0xF9, 0xC0,
0xE2, 0x2B, 0x10, 0xC7, 0x2D, 0xE5, 0x0A, 0xF7, 0x49, 0x22, 0x22, 0xF9, 0xD6, 0xF7, 0x24, 0xF9,
0xE7, 0xFB, 0x55, 0xEA, 0x27, 0x0B, 0xF1, 0xFE, 0xCA, 0xF8, 0x07, 0x11, 0xCB, 0xFB, 0x0E, 0x4C,
0xC0, 0xFF, 0xD7, 0x28, 0x30, 0xD7, 0x27, 0xCF, 0xE9, 0x0C, 0xFD, 0x05, 0xEA, 0xD9, 0x4F, 0x3C,
0x2E, 0x32, 0xE0, 0xC1, 0x1F, 0x8E, 0x07, 0xED, 0x07, 0xE9, 0xD2, 0x0D, 0xF4, 0x01, 0x48, 0x30,
0xB7, 0xA4, 0x22, 0x19, 0x06, 0xE9, 0x04, 0x09, 0xFF, 0x01, 0xF3, 0xFF, 0xE6, 0x1A, 0xD4, 0x08,
0xF2, 0x27, 0x06, 0xD7, 0xF1, 0x25, 0x1F, 0x1B, 0x02, 0x39, 0xE6, 0x38, 0xE3, 0x2E, 0xCE, 0x3D,
0x2B, 0x0B, 0x03, 0xF6, 0x0A, 0x15, 0x30, 0x1D, 0xDB, 0x33, 0xCC, 0xFF, 0xE9, 0xE9, 0x04, 0x17,
0x06, 0x3F, 0x08, 0x06, 0x26, 0x2D, 0x0D, 0xD0, 0xC1, 0xFD, 0x02, 0x1A, 0x35, 0x05, 0x0E, 0xE3,
0xEF, 0x25, 0xF2, 0xF9, 0xF1, 0xCD, 0xF8, 0xFD, 0x33, 0xBC, 0x9E, 0x26, 0xF2, 0xEF, 0x34, 0x09,
0x2C, 0xD8, 0x06, 0x1A, 0x19, 0x2D, 0xF6, 0x2A, 0xF7, 0xF0, 0xF6, 0x1C, 0x02, 0x09, 0xEA, 0x0C,
0x4D, 0x1D, 0xF2, 0xDD, 0x2A, 0x04, 0x25, 0x15, 0x02, 0xC8, 0xFA, 0x24, 0xDF, 0x18, 0xDB, 0xF9,
0x30, 0x16, 0xD3, 0xDB, 0x11, 0xDE, 0x0C, 0x06, 0x29, 0xDA, 0x04, 0x51, 0xDC, 0xBA, 0xB0, 0x38,
0x12, 0x38, 0x09, 0xFD, 0xE6, 0x22, 0xF9, 0xEB, 0xD1, 0xFE, 0x29, 0x3F, 0x13, 0x16, 0x00, 0xD5,
0xEF, 0x04, 0xDD, 0xFD, 0xF2, 0xDD, 0xF7, 0x0F, 0xEC, 0xE3, 0xF3, 0xEE, 0xEE, 0x1E, 0x26, 0xF8,
0xFE, 0xDD, 0x19, 0xF6, 0xE8, 0xFD, 0xCA, 0xE2, 0xF2, 0xFE, 0xF3, 0x08, 0xFE, 0x14, 0x08, 0x0C,
0x5C, 0x1D, 0xF8, 0x2C, 0x27, 0x01, 0x06, 0xE4, 0xCD, 0xFD, 0x1F, 0x16, 0xE0, 0x3E, 0x3D, 0x40,
0x03, 0x15, 0x49, 0xFE, 0x15, 0x07, 0xEA, 0xD0, 0x11, 0xF5, 0xEF, 0x21, 0x18, 0x39, 0x12, 0x90,
0x09, 0xEE, 0x07, 0xE2, 0x07, 0xE7, 0xCF, 0x1F, 0xE4, 0x0C, 0xEC, 0xEA, 0x12, 0xF3, 0x0F, 0x03,
0xFC, 0x0F, 0xD2, 0x20, 0x0F, 0xE2, 0x08, 0x01, 0x37, 0xDB, 0xF0, 0x3C, 0xCD, 0xC3, 0xE5, 0xE0,
0x06, 0xD4, 0x37, 0x35, 0x07, 0x14, 0x3B, 0x25, 0xCC, 0xFD, 0xD4, 0xEC, 0x4D, 0xDD, 0xE5, 0x48,
0x02, 0x07, 0x20, 0xF9, 0x32, 0xF3, 0x11, 0xF7, 0x19, 0xE5, 0xED, 0xFE, 0x12, 0x26, 0xF1, 0x10,
0x1B, 0xF5, 0xF0, 0x16, 0xDD, 0x06, 0xE9, 0xED, 0xF4, 0xF9, 0x13, 0x04, 0x00, 0xF2, 0xF5, 0xF2,
0xD8, 0xF5, 0xE8, 0xF7, 0x03, 0xE2, 0x07, 0xF6, 0x0B, 0x00, 0xE7, 0x22, 0xFA, 0x11, 0x01, 0xDA,
0xE9, 0xDA, 0x38, 0xCD, 0x25, 0x12, 0x45, 0xFE, 0x07, 0xC4, 0x2B, 0x02, 0x55, 0x30, 0xCF, 0x2E,
0x1B, 0x15, 0xDB, 0xE4, 0xF6, 0x23, 0x0D, 0x0D, 0x15, 0x09, 0xE4, 0xB8, 0xF7, 0x0D, 0x3A, 0xDC,
0x49, 0x0E, 0xEA, 0x0A, 0x08, 0x01, 0xD8, 0xF5, 0x12, 0xDB, 0xF1, 0x1D, 0xF1, 0x09, 0x36, 0x22,
0xD3, 0xFE, 0x0F, 0x01, 0x11, 0xBE, 0xD3, 0xFE, 0xF4, 0x06, 0x06, 0x20, 0x08, 0xFA, 0xDD, 0xF7,
0xE7, 0x36, 0x1B, 0xA4, 0xFD, 0xF5, 0x0A, 0x0F, 0x24, 0xD5, 0xC7, 0x36, 0x30, 0x35, 0xE6, 0xF7,
0x0B, 0xFA, 0xFE, 0xEF, 0xD1, 0x09, 0x1A, 0x14, 0xDB, 0x08, 0x11, 0xF0, 0x1D, 0xDD, 0x20, 0x09,
0xFD, 0x33, 0xFF, 0xF6, 0x15, 0xEB, 0x03, 0xF8, 0x13, 0xE9, 0x2E, 0xB4, 0xE6, 0x1C, 0xF8, 0xEB,
0x02, 0xE0, 0x31, 0xFB, 0xE5, 0x08, 0x16, 0xE8, 0x43, 0xDE, 0xF5, 0x18, 0xD9, 0xF6, 0x19, 0xD4,
0xE3, 0x14, 0xD9, 0x05, 0x0D, 0x2B, 0x33, 0x05, 0xF5, 0x34, 0xED, 0xF8, 0xEB, 0x0A, 0xFF, 0xDD,
0x0C, 0xF4, 0xF3, 0x1C, 0xF3, 0xEE, 0xDF, 0xE5, 0xD7, 0xF0, 0x02, 0x21, 0x23, 0xE8, 0xE3, 0x3F,
0xF3, 0x39, 0xF8, 0x15, 0x26, 0xCE, 0x2D, 0x40, 0xF8, 0x07, 0x0C, 0xFE, 0x0F, 0x14, 0xD7, 0x0C,
0xDC, 0x09, 0x3D, 0xDE, 0xE6, 0x09, 0x05, 0x17, 0xDD, 0xF7, 0xB6, 0x2A, 0xF3, 0xF3, 0x07, 0x06,
0xEF, 0x03, 0xF1, 0x3E, 0xFE, 0x2E, 0x11, 0xF9, 0x15, 0x12, 0x3D, 0xFE, 0x27, 0xF0, 0x19, 0xFF,
0xF9, 0xDA, 0x1C, 0x04, 0x15, 0x16, 0x10, 0xFD, 0x14, 0x0F, 0xF1, 0x03, 0xE4, 0xB9, 0x3C, 0xE6,
0x49, 0x0D, 0xC5, 0x37, 0xF6, 0xF7, 0xF3, 0x1B, 0xE1, 0x2C, 0xF9, 0x43, 0xDB, 0x3F, 0x04, 0xEC,
0x0E, 0xFF, 0xFE, 0x10, 0xD3, 0xD5, 0x0D, 0x18, 0xFF, 0x22, 0xD7, 0x0F, 0x2B, 0x12, 0xE9, 0xD9,
0x1A, 0xEA, 0x16, 0xE9, 0x2A, 0xE9, 0xF6, 0x06, 0xE1, 0x1B, 0x19, 0x11, 0xD2, 0xEB, 0xF6, 0x12,
0xF8, 0x1A, 0x03, 0x1B, 0x2B, 0x26, 0xFA, 0xED, 0x2B, 0xD8, 0xF9, 0xEB, 0x29, 0x1B, 0x20, 0xEA,
0x46, 0x13, 0xEA, 0x05, 0xEC, 0x15, 0xDE, 0x01, 0x0A, 0x37, 0xEA, 0xF9, 0x21, 0x0C, 0x31, 0xE8,
0xAD, 0x26, 0x29, 0xFA, 0x04, 0xE5, 0x2A, 0xD7, 0xE6, 0x05, 0xD9, 0x19, 0xC7, 0x30, 0x16, 0xE6,
0xDC, 0x3B, 0x0B, 0xDB, 0x01, 0xED, 0x02, 0xDD, 0x06, 0xF1, 0x20, 0x30, 0xFB, 0xDF, 0xF3, 0x17,
0x13, 0x23, 0xFF, 0x0C, 0xFC, 0x24, 0xEB, 0x0F, 0xEB, 0xC2, 0x2C, 0xEA, 0xFC, 0x0A, 0x14, 0x18,
0xF3, 0x20, 0x00, 0xDE, 0x27, 0xDF, 0x24, 0xEE, 0x38, 0x32, 0xE6, 0x1D, 0xFF, 0x29, 0x15, 0x0C,
0xED, 0xF2, 0xE7, 0xE3, 0xE2, 0xEB, 0x01, 0x23, 0xE5, 0x0E, 0xB4, 0x14, 0xDF, 0xF8, 0xDB, 0xF6,
0xE9, 0x13, 0x2F, 0xF7, 0x0F, 0x15, 0x32, 0xCA, 0xDE, 0xEC, 0x0B, 0x0B, 0xF8, 0x33, 0x09, 0x1D,
0xF7, 0xC6, 0x03, 0x48, 0xF8, 0x25, 0xE7, 0xFB, 0xF9, 0x0F, 0xD8, 0x03, 0xED, 0x14, 0xEB, 0xF9,
0x03, 0xF9, 0xF1, 0x36, 0x04, 0x41, 0xF6, 0x16, 0x15, 0x09, 0x1D, 0xE7, 0x0E, 0xE6, 0x13, 0x07,
0xDA, 0x10, 0xFB, 0xDA, 0xFC, 0x06, 0xEA, 0xE8, 0x1C, 0x21, 0xFA, 0x1A, 0xFC, 0x3D, 0x26, 0xEF,
0x2A, 0xEF, 0x35, 0xD1, 0xE8, 0x18, 0xF9, 0x08, 0x09, 0x10, 0x30, 0xEE, 0xF1, 0x11, 0x06, 0xFE,
0x19, 0x09, 0x07, 0xEF, 0x17, 0xFF, 0xE5, 0xEF, 0xCC, 0x07, 0x04, 0x26, 0xEF, 0xF5, 0x0A, 0xF4,
0x25, 0xF5, 0x12, 0xE5, 0x06, 0xEC, 0x20, 0x10, 0xEA, 0x06, 0x10, 0x12, 0x54, 0x04, 0x09, 0x00,
0xE5, 0xED, 0x1B, 0xEE, 0x1D, 0x19, 0xEE, 0xF3, 0x11, 0xF5, 0xD4, 0x0A, 0xF7, 0x07, 0xF3, 0xD2,
0x19, 0x02, 0xFF, 0xDE, 0xBF, 0x0E, 0x23, 0xF6, 0xEF, 0x11, 0x1C, 0x09, 0x26, 0xFC, 0xF3, 0xF8,
0x51, 0xC5, 0xFB, 0xE5, 0xCE, 0xD9, 0xD0, 0x09, 0x07, 0xB5, 0xE2, 0x0F, 0x11, 0x10, 0x1B, 0x18,
0x2E, 0x04, 0xE6, 0xFE, 0xF7, 0xD5, 0x00, 0x1C, 0xB4, 0x1B, 0xC0, 0x04, 0x19, 0xD8, 0x0D, 0xF5,
0xC7, 0x93, 0x14, 0x26, 0xF3, 0xB8, 0x10, 0x2E, 0x04, 0xDE, 0xD9, 0x26, 0x08, 0x24, 0xE4, 0xFD,
0xF9, 0x0A, 0xDE, 0xF1, 0xC9, 0x2E, 0xB4, 0xA8, 0x53, 0xDC, 0x2C, 0xC3, 0x1A, 0xE7, 0xF3, 0xD8,
0x10, 0xF6, 0xED, 0xEC, 0xED, 0x2E, 0x19, 0x01, 0x2E, 0x3C, 0x28, 0xE4, 0xC8, 0xC1, 0xE5, 0xD5,
0x02, 0xC4, 0xE8, 0xFC, 0x70, 0xFD, 0x44, 0x0B, 0xFC, 0x5A, 0xCE, 0x13, 0x24, 0xFF, 0x1C, 0x0C,
0xEF, 0x06, 0xF1, 0x3E, 0x11, 0xD8, 0xDD, 0xFD, 0xDC, 0xD7, 0xD6, 0xD5, 0x17, 0x49, 0x07, 0x0C,
0xE4, 0xF8, 0x2B, 0xDC, 0x11, 0xE9, 0xE5, 0x1C, 0x1F, 0xDE, 0x16, 0xDF, 0xA7, 0x25, 0x5D, 0x19,
0xEF, 0x1B, 0xE4, 0x0C, 0x19, 0x07, 0x21, 0x25, 0x43, 0xE1, 0x23, 0xFC, 0xE5, 0xCE, 0x00, 0x10,
0x00, 0xFA, 0xFC, 0x4E, 0xE4, 0xEC, 0xEC, 0xE2, 0x3D, 0xD5, 0x2C, 0xC4, 0x14, 0x12, 0x07, 0xE2,
0xF5, 0x17, 0x1A, 0x29, 0xFB, 0x19, 0xD5, 0x46, 0x23, 0xF8, 0x2F, 0x2A, 0xEF, 0x07, 0xFB, 0x04,
0xDE, 0x04, 0x15, 0xFA, 0x15, 0x15, 0xE0, 0xE1, 0x07, 0xEF, 0x0D, 0x39, 0x00, 0xED, 0xD0, 0x3A,
0xE7, 0x03, 0xF7, 0x1F, 0x2F, 0x21, 0xFE, 0x02, 0x27, 0x2E, 0xE6, 0xD8, 0x13, 0xB8, 0xF3, 0x3D,
0x1F, 0x04, 0x19, 0xC6, 0xFC, 0x12, 0x1F, 0xFD, 0xEA, 0x1D, 0xEE, 0x0F, 0x1C, 0x24, 0xE9, 0x44,
0xED, 0x17, 0xCD, 0x1E, 0x11, 0xDC, 0x35, 0xEF, 0xF9, 0x49, 0xE7, 0xCE, 0x0F, 0x0E, 0xC6, 0x15,
0x20, 0x43, 0x20, 0x10, 0x29, 0xEB, 0x30, 0xE3, 0xC6, 0xF1, 0x13, 0xDE, 0xD9, 0x1C, 0xB2, 0xF8,
0x28, 0xEC, 0xEB, 0x00, 0xCF, 0xEA, 0x0C, 0xBE, 0x07, 0xBA, 0xD7, 0xFF, 0xFC, 0x30, 0xFC, 0xB8,
0xCF, 0xDC, 0x20, 0x06, 0x38, 0x1A, 0xFF, 0x38, 0xF7, 0xF6, 0xF5, 0x3D, 0x22, 0x04, 0xF5, 0x0F,
0x1E, 0xD5, 0xCF, 0x1D, 0x07, 0xB2, 0xD0, 0x4A, 0x29, 0xDD, 0xFB, 0xE8, 0xF1, 0xF3, 0x48, 0x16,
0x20, 0x3B, 0xE2, 0xDF, 0xBE, 0x19, 0xF6, 0xBA, 0xEF, 0x03, 0x02, 0x04, 0xEA, 0xB5, 0x05, 0x03,
0xFE, 0xB8, 0x23, 0xEB, 0xED, 0x21, 0xE5, 0xEB, 0x02, 0x35, 0xE0, 0x25, 0xF7, 0x16, 0xD4, 0xD9,
0xDA, 0xD4, 0xF4, 0x0B, 0x00, 0x51, 0xDA, 0x15, 0x3F, 0xEC, 0xE0, 0xDA, 0x07, 0x01, 0x48, 0x1F,
0xE8, 0x1D, 0x02, 0x17, 0x0A, 0x07, 0xE2, 0x27, 0x3A, 0xDF, 0x29, 0xE6, 0x0A, 0xE8, 0x11, 0xF6,
0xCA, 0x00, 0x37, 0xEE, 0x6C, 0xDD, 0x43, 0x00, 0x04, 0x0B, 0xEC, 0x0A, 0xFD, 0x04, 0x15, 0x1E,
0xA3, 0xF4, 0x07, 0x42, 0xEA, 0x0E, 0x32, 0xE6, 0xDF, 0xAE, 0xDC, 0xB0, 0x0F, 0x0D, 0x17, 0x34,
0xBF, 0x24, 0x01, 0xDB, 0x2F, 0x22, 0x0A, 0xE5, 0xE4, 0xF7, 0x1D, 0xFB, 0xDB, 0xCE, 0xBF, 0xF2,
0x41, 0x3C, 0xC5, 0xEE, 0x25, 0x1B, 0xE0, 0x0E, 0x2B, 0xD4, 0x17, 0x23, 0xD5, 0x0B, 0xEB, 0xF6,
0xEE, 0xCB, 0x4E, 0xF3, 0x49, 0x02, 0xFB, 0x10, 0x26, 0xF2, 0x37, 0xD5, 0xF4, 0x56, 0x10, 0x0D,
0x18, 0x1A, 0xE6, 0xF9, 0x05, 0x09, 0x13, 0x10, 0x2B, 0xF7, 0x25, 0x1F, 0xEC, 0x0A, 0xD8, 0x0A,
0x0C, 0xFD, 0xE5, 0x0D, 0x18, 0xD8, 0xFC, 0x52, 0x03, 0xD8, 0xDD, 0x00, 0xF5, 0x17, 0x25, 0xE8,
0xF2, 0xF9, 0xE8, 0x0E, 0x49, 0xE1, 0xF4, 0x1F, 0x09, 0x08, 0x3C, 0x1D, 0xF3, 0xF9, 0x09, 0xD6,
0x1E, 0x3F, 0x03, 0xE2, 0xEE, 0xCE, 0x0E, 0x12, 0x05, 0x37, 0xDD, 0x14, 0x33, 0xBA, 0xDE, 0xE5,
0xDD, 0xBA, 0x6C, 0xC9, 0xF4, 0xE7, 0xEC, 0x14, 0xCC, 0xEA, 0xF2, 0xFE, 0x0B, 0x0F, 0x16, 0xE4,
0x01, 0x2A, 0xEC, 0xF9, 0x0E, 0xED, 0xD4, 0x20, 0x17, 0x30, 0xFF, 0xDD, 0xDD, 0xE9, 0xE3, 0xC7,
0x25, 0xFC, 0x06, 0x14, 0xA4, 0x0E, 0x0F, 0x0D, 0x1D, 0xDB, 0xE5, 0x07, 0x1C, 0x04, 0xDA, 0xD6,
0x00, 0x0B, 0x1D, 0xDD, 0x42, 0xE7, 0x0E, 0x48, 0xDF, 0x2F, 0xB3, 0x0A, 0x18, 0x17, 0x12, 0x37,
0xE0, 0x07, 0xDA, 0xDA, 0xCC, 0xF6, 0x42, 0xDB, 0xCA, 0xEE, 0xB8, 0xF2, 0x12, 0xE7, 0x01, 0xFD,
0xC9, 0xD3, 0x4E, 0xD6, 0x18, 0x28, 0xFB, 0xDE, 0x21, 0xDD, 0x0D, 0x08, 0xD7, 0x04, 0x27, 0x02,
0xFF, 0x19, 0xF3, 0x9C, 0x2A, 0x29, 0x3E, 0x12, 0x1B, 0xE0, 0x1E, 0x16, 0x02, 0xF1, 0x05, 0x3D,
0xFB, 0xEE, 0x1E, 0xD7, 0x18, 0x13, 0xCA, 0xF6, 0x2D, 0xDA, 0xC0, 0xDE, 0x33, 0xDC, 0xFC, 0x0D,
0x1F, 0x47, 0xE2, 0xF0, 0xF1, 0xD4, 0xCD, 0x05, 0x1B, 0x30, 0x48, 0xD4, 0xF6, 0xFD, 0x4E, 0xFC,
0x26, 0x16, 0xFA, 0xF8, 0xBC, 0x1A, 0xF5, 0x22, 0x09, 0x01, 0xBB, 0xE1, 0x09, 0xF7, 0x28, 0xFB,
0x0F, 0xEF, 0xF2, 0x1D, 0xF1, 0xF6, 0xFA, 0x0B, 0xFE, 0x18, 0x0B, 0xF1, 0x13, 0x33, 0xE7, 0xEE,
0xF5, 0x0B, 0x0F, 0x29, 0xC0, 0x26, 0xD9, 0xFE, 0x19, 0xF6, 0xF9, 0x11, 0xFE, 0x30, 0x06, 0x08,
0xF9, 0x15, 0x00, 0xCF, 0x04, 0xE5, 0xD9, 0xD5, 0x0C, 0x22, 0xE9, 0x20, 0x51, 0xEF, 0xB6, 0xEB,
0x2B, 0xF3, 0xE3, 0xF3, 0xFA, 0xE9, 0x20, 0xFB, 0xF2, 0x10, 0x03, 0x30, 0x33, 0xF3, 0xF6, 0x2A,
0xB5, 0xEF, 0xFC, 0xF0, 0xE6, 0xDF, 0xEB, 0xDE, 0xD4, 0xE8, 0xCC, 0xFD, 0x01, 0x0C, 0x36, 0xF3,
0x19, 0x00, 0xD6, 0xD8, 0xC0, 0xE4, 0xD0, 0xFE, 0x4A, 0xD9, 0x44, 0xB4, 0xFE, 0xB3, 0xDE, 0xC4,
0x19, 0x15, 0x07, 0xD7, 0x05, 0x33, 0xD8, 0x52, 0xDD, 0x1F, 0x2C, 0x2A, 0xD2, 0xE7, 0x1F, 0xEF,
0xEB, 0x17, 0xEE, 0xF0, 0xF5, 0x16, 0xD6, 0x17, 0x31, 0x0F, 0xC5, 0xEE, 0x21, 0xFB, 0x22, 0xF9,
0xFD, 0xE6, 0xC0, 0xDC, 0x07, 0xE1, 0xE1, 0x35, 0x14, 0xBB, 0xEE, 0x09, 0xE4, 0x3F, 0xF4, 0xF7,
0x26, 0xFC, 0xD5, 0xE5, 0xFD, 0xE4, 0x39, 0xF8, 0x07, 0x05, 0xE2, 0xFD, 0x13, 0xF5, 0xFD, 0xEB,
0xEE, 0x03, 0x0A, 0xF5, 0xEB, 0xEA, 0xE0, 0xDC, 0xED, 0x0D, 0xF6, 0xE2, 0x26, 0x27, 0x1E, 0xCF,
0x29, 0xDD, 0xE6, 0xE9, 0xCE, 0x15, 0x1C, 0x13, 0xAA, 0x35, 0xF9, 0xF6, 0x13, 0xEF, 0x1A, 0x08,
0x18, 0xDE, 0xDE, 0xDF, 0x02, 0xCA, 0xDC, 0xF5, 0xC3, 0xC9, 0xC9, 0xE4, 0x1E, 0x18, 0xCD, 0xDB,
0x08, 0xD4, 0x14, 0x07, 0x1D, 0x1C, 0x22, 0xCA, 0x16, 0x09, 0x02, 0xED, 0x16, 0x29, 0x60, 0x0C,
0xD6, 0xFB, 0xF8, 0xF0, 0x14, 0x00, 0xF7, 0xCC, 0x32, 0xF7, 0xBE, 0xCD, 0xE3, 0x05, 0xD8, 0x17,
0xED, 0xF1, 0x0D, 0xDF, 0x2B, 0xDB, 0x22, 0x01, 0x0F, 0x09, 0x2B, 0xF6, 0xFF, 0x17, 0x27, 0x38,
0xF9, 0x04, 0x31, 0x09, 0x01, 0xDA, 0xD7, 0x23, 0x02, 0xF4, 0xF7, 0xE5, 0x17, 0xD3, 0x09, 0x3D,
0xE9, 0x00, 0xFA, 0x1F, 0x1B, 0xDC, 0x09, 0xE4, 0x1C, 0xC7, 0x09, 0x14, 0x02, 0xEF, 0xC4, 0x04,
0xB8, 0xEF, 0x3A, 0x32, 0xDB, 0x2F, 0xD3, 0xDE, 0xDF, 0xF2, 0xE0, 0x12, 0xD6, 0x0B, 0x00, 0xFD,
0xBA, 0xEA, 0x1E, 0xD9, 0x17, 0x0C, 0xF2, 0xF3, 0x2D, 0xE3, 0xE6, 0x11, 0xEC, 0xEF, 0x16, 0x37,
0xFC, 0x3A, 0xCC, 0x17, 0x04, 0x31, 0x25, 0x2D, 0x03, 0x09, 0xE7, 0xE8, 0xE0, 0xD2, 0xFA, 0xF6,
0x00, 0x04, 0xF5, 0xF4, 0x0B, 0x01, 0xEA, 0xF8, 0x00, 0xDD, 0x05, 0x08, 0xF5, 0xF7, 0x1C, 0xE6,
0x1F, 0xD4, 0xF2, 0x16, 0xF6, 0xD4, 0xF6, 0xF2, 0x2A, 0x19, 0x08, 0x10, 0xE4, 0xE8, 0x09, 0xFF,
0xF7, 0xE0, 0x1C, 0xEE, 0x0B, 0xFD, 0x00, 0x18, 0xDF, 0xE8, 0x28, 0x0B, 0xF2, 0x08, 0x03, 0xF6,
0xE9, 0x02, 0xF6, 0xE1, 0x26, 0xC4, 0xED, 0xF8, 0x0C, 0xCE, 0x14, 0x10, 0xFF, 0x11, 0x07, 0xE9,
0xBC, 0x19, 0xF6, 0x06, 0x14, 0x22, 0xFF, 0xF3, 0x2A, 0xE6, 0xFA, 0xF6, 0xF4, 0x07, 0xDE, 0xCF,
0xDE, 0x08, 0x14, 0xF9, 0xF8, 0x0E, 0x15, 0xEE, 0x06, 0x18, 0x18, 0xE4, 0x12, 0x05, 0x02, 0xE9,
0xC6, 0x1F, 0x13, 0xE1, 0x36, 0x19, 0xF7, 0x1E, 0xFC, 0xBE, 0xFE, 0x1A, 0x08, 0x0B, 0x10, 0xD3,
0xF6, 0x2A, 0xD3, 0xFC, 0x1F, 0x1A, 0x0B, 0xEB, 0x2A, 0x1F, 0xFA, 0xDA, 0xE7, 0xF6, 0xFE, 0xF6,
0xFE, 0xEB, 0x01, 0xF5, 0x28, 0xF7, 0x0F, 0x2F, 0x0F, 0x01, 0x24, 0x1B, 0xDE, 0x1C, 0x1E, 0xE7,
0x0A, 0x2C, 0x0E, 0xF3, 0x0D, 0x43, 0xDF, 0xED, 0x21, 0xF4, 0x1C, 0xF3, 0xD3, 0x26, 0x17, 0xF2,
0x29, 0x10, 0xE0, 0xE3, 0x0D, 0x01, 0xFA, 0x10, 0xFD, 0x17, 0xED, 0xEB, 0xF6, 0xBC, 0x0C, 0xD4,
0x0D, 0x0C, 0xEE, 0xEE, 0xEC, 0xFA, 0x00, 0x1A, 0x22, 0x1B, 0xC9, 0x05, 0xE5, 0x02, 0x0A, 0xF7,
0xFB, 0x27, 0xF3, 0x0D, 0x0D, 0xF2, 0xF0, 0xE3, 0xED, 0x07, 0x04, 0x0C, 0x1F, 0x08, 0xFA, 0x04,
0xE6, 0xE9, 0xF9, 0xF7, 0xF9, 0x03, 0xE5, 0xFB, 0x02, 0xEF, 0x0C, 0xF9, 0x11, 0x1B, 0xFC, 0x03,
0x25, 0x1C, 0x00, 0x21, 0xF7, 0xE5, 0xF8, 0x14, 0x1D, 0x12, 0xEC, 0xB7, 0x0D, 0xF2, 0x23, 0xD5,
0x30, 0xFB, 0xCB, 0xEC, 0xC0, 0x1F, 0x0D, 0x00, 0xD4, 0x1C, 0xE9, 0xD1, 0xFF, 0xF9, 0x24, 0xFB,
0xFC, 0x11, 0xE8, 0x0A, 0x0F, 0xF3, 0x0C, 0xC9, 0xD2, 0xF0, 0x14, 0x26, 0xFA, 0xD5, 0x0A, 0xDA,
0x0D, 0xE1, 0x19, 0x02, 0xE0, 0x16, 0xEF, 0xF4, 0xF3, 0xE8, 0xD9, 0xFF, 0x06, 0x22, 0x18, 0xFA,
0x06, 0x0B, 0xEB, 0xFE, 0x11, 0x05, 0x04, 0x0D, 0x05, 0xFA, 0xE2, 0x24, 0x01, 0x01, 0xFD, 0x12,
0x15, 0xEB, 0x17, 0xE4, 0x0E, 0x1C, 0x29, 0xF3, 0xE4, 0x1F, 0x00, 0xD3, 0xFE, 0x00, 0xF7, 0x02,
0xDD, 0x02, 0xE8, 0x14, 0x02, 0xDF, 0x11, 0x1B, 0xEB, 0xF0, 0xFC, 0x27, 0x11, 0xFD, 0x01, 0xF5,
0xDA, 0xDF, 0x02, 0xFF, 0xF0, 0x1E, 0xFD, 0xF4, 0x14, 0x0F, 0x03, 0x03, 0x1A, 0x2C, 0xF3, 0xEF,
0xFF, 0x11, 0x08, 0xE5, 0x25, 0xC1, 0x38, 0xFC, 0xF0, 0xD2, 0x20, 0x22, 0x0D, 0xEB, 0xF0, 0xD1,
0xE1, 0x0E, 0x09, 0x0A, 0x20, 0xF0, 0x16, 0xED, 0xE4, 0xF6, 0x03, 0xF9, 0xFA, 0x02, 0x06, 0xED,
0x28, 0x15, 0x06, 0xF0, 0x14, 0x02, 0x08, 0xFB, 0xDF, 0xDD, 0x05, 0x04, 0x00, 0x15, 0x11, 0xE7,
0xFB, 0xE1, 0x0E, 0x0A, 0xFE, 0xE9, 0xDA, 0x01, 0xDA, 0xF2, 0x13, 0x2F, 0x1D, 0x06, 0x11, 0xE3,
0x05, 0x13, 0x08, 0xF7, 0x19, 0x00, 0x20, 0xF9, 0x0D, 0x36, 0x18, 0xF8, 0xD8, 0xDF, 0xC2, 0xE7,
0x1B, 0xF1, 0x02, 0x0F, 0x0B, 0xDE, 0x17, 0x13, 0xF5, 0xE7, 0x15, 0x3D, 0xE2, 0x25, 0x12, 0x20,
0xE5, 0x13, 0xFC, 0xE0, 0xF3, 0xE1, 0xEC, 0x07, 0xF3, 0x29, 0xDC, 0x47, 0x18, 0xFB, 0xDE, 0x23,
0xFB, 0x24, 0xFF, 0xE9, 0x0A, 0x21, 0x21, 0xF3, 0xE4, 0xE2, 0x12, 0x31, 0xF6, 0xF7, 0x3A, 0x3C,
0x06, 0x06, 0x1C, 0xED, 0x25, 0x04, 0x02, 0xF9, 0xD1, 0x19, 0xEB, 0x29, 0xF6, 0xDD, 0x02, 0x29,
0x10, 0xD9, 0xE6, 0x1D, 0x0F, 0x07, 0x18, 0x04, 0xEE, 0x15, 0xFA, 0xE4, 0x1F, 0x09, 0x01, 0x10,
0x01, 0x0D, 0x11, 0xFE, 0x12, 0xF3, 0x21, 0xFD, 0xCE, 0xFB, 0x00, 0x09, 0xFD, 0xF0, 0xF8, 0xDD,
0xF9, 0xD5, 0x0F, 0x02, 0xFE, 0xCA, 0xCF, 0xE5, 0xEE, 0xF7, 0xD5, 0xFC, 0x10, 0x2E, 0x02, 0xFE,
0xEC, 0x22, 0xE1, 0x01, 0x2C, 0xB8, 0xD4, 0xCF, 0xFC, 0xF8, 0x17, 0xCC, 0xF5, 0x01, 0x1C, 0xF5,
0x16, 0xCE, 0xF2, 0x08, 0xEB, 0x0D, 0xC9, 0xD1, 0x0B, 0xE0, 0xEF, 0x10, 0x06, 0xF2, 0x0E, 0xDD,
0x12, 0x1E, 0xE0, 0xE0, 0x0D, 0x07, 0xF5, 0xEC, 0x1A, 0x2E, 0xE8, 0x06, 0xDD, 0x09, 0x01, 0xF3,
0xF4, 0xF3, 0xD4, 0xE0, 0xDB, 0x05, 0xF8, 0xF1, 0x0C, 0x1B, 0xFF, 0x11, 0x11, 0xF5, 0x0E, 0x12,
0x38, 0x1E, 0x0F, 0xDF, 0xFC, 0xDF, 0xF5, 0xFE, 0xE9, 0xE7, 0x2B, 0x02, 0xDC, 0x22, 0x11, 0xEF,
0x04, 0xE4, 0x05, 0xFC, 0x14, 0xE2, 0xFA, 0xF5, 0x0F, 0x06, 0x17, 0x18, 0xF7, 0x0E, 0x21, 0x31,
0xD9, 0xE7, 0xFA, 0xD1, 0xEC, 0x23, 0xE5, 0xDC, 0x40, 0xE7, 0xFD, 0xFD, 0xDA, 0x19, 0x0B, 0x39,
0x1D, 0xFE, 0x05, 0x10, 0x2F, 0x57, 0xFB, 0x03, 0xFB, 0x01, 0xF9, 0xDD, 0xF8, 0x05, 0xE9, 0x13,
0xF1, 0x27, 0xFE, 0xCF, 0x17, 0xF9, 0x08, 0xF8, 0xE6, 0xF1, 0x05, 0xF3, 0x17, 0x03, 0xF9, 0xE6,
0xFE, 0xF9, 0xCE, 0xE1, 0xFA, 0xF2, 0xDF, 0x00, 0x09, 0xF5, 0xFA, 0x19, 0xE6, 0xE6, 0x03, 0xDE,
0x05, 0x32, 0xD9, 0xEC, 0xEF, 0x04, 0x12, 0xF3, 0xFC, 0x13, 0x00, 0xF2, 0xF0, 0x07, 0xFD, 0xCE,
0xF0, 0x11, 0xF3, 0x18, 0xFC, 0xC9, 0xDD, 0x16, 0xFF, 0x03, 0xFF, 0xF9, 0xEB, 0x02, 0x00, 0xEF,
0x04, 0x0D, 0x09, 0xF3, 0xED, 0x21, 0xF7, 0xE1, 0x38, 0xCE, 0x49, 0xB5, 0xCF, 0x31, 0x26, 0xC1,
0x07, 0xEE, 0xEF, 0xEB, 0x09, 0x1E, 0x04, 0x2E, 0x06, 0x15, 0x08, 0x06, 0x29, 0xC0, 0x2C, 0xE0,
0x06, 0xFB, 0x0B, 0xFA, 0x09, 0x17, 0xD5, 0xF1, 0xFF, 0x18, 0x04, 0xF7, 0xF8, 0x05, 0xF1, 0x21,
0x19, 0xEB, 0xFF, 0xE4, 0x02, 0x05, 0xF6, 0x1D, 0x02, 0xE6, 0xDF, 0xEA, 0xE2, 0xE8, 0x00, 0x0C,
0x2F, 0x02, 0xE1, 0xE8, 0x27, 0xD7, 0x1C, 0xEB, 0xBC, 0x06, 0xE7, 0xF5, 0x24, 0xDC, 0xF8, 0xEA,
0xD6, 0x00, 0x0F, 0x09, 0xD7, 0x17, 0xF8, 0x02, 0x01, 0xE5, 0xEE, 0xF6, 0xFD, 0x24, 0x22, 0xD8,
0xE2, 0x08, 0xFF, 0xEA, 0x06, 0xDE, 0x0F, 0xEB, 0x09, 0x02, 0xF1, 0x13, 0x1B, 0x13, 0x0D, 0x09,
0xE1, 0x09, 0x0C, 0x0B, 0xE3, 0x09, 0xFC, 0x19, 0xFA, 0xE0, 0xE0, 0xF3, 0x15, 0x01, 0x06, 0xE1,
0xEF, 0xF7, 0x11, 0xC3, 0x02, 0x2D, 0xEF, 0x0A, 0x13, 0xF9, 0xF7, 0x0C, 0xEB, 0x0A, 0x0F, 0xF2,
0xEE, 0xFE, 0xE1, 0x02, 0x02, 0x0E, 0xF8, 0x20, 0x00, 0x1A, 0x03, 0xF9, 0xD6, 0x05, 0x13, 0x0D,
0x03, 0xCB, 0x08, 0xE4, 0x10, 0x02, 0xFB, 0x27, 0xDD, 0x06, 0x16, 0xF6, 0x04, 0x0B, 0xF1, 0x2C,
0xEF, 0xFF, 0x0E, 0x19, 0x2F, 0xE8, 0xFE, 0x25, 0x1F, 0xEA, 0x1F, 0xF4, 0xE4, 0x17, 0x07, 0xEF,
0x36, 0xFA, 0x15, 0x03, 0x00, 0x1C, 0xF6, 0xC7, 0xED, 0xEE, 0xED, 0xEA, 0x0A, 0x18, 0x02, 0x18,
0x00, 0xEC, 0x03, 0xFD, 0xF8, 0xD5, 0x11, 0x01, 0xF7, 0xE9, 0x06, 0x02, 0x07, 0x08, 0x0D, 0xD2,
0x38, 0x34, 0xCE, 0xE4, 0x11, 0x16, 0xE4, 0xFE, 0x0D, 0x03, 0x16, 0xEF, 0xD8, 0x2C, 0x02, 0xC0,
0x08, 0xDD, 0x22, 0xFC, 0xD9, 0xE1, 0x02, 0xEC, 0x20, 0x16, 0xF1, 0x38, 0xEE, 0xD8, 0x19, 0xA9,
0xFD, 0xE0, 0x17, 0xE7, 0xFD, 0x08, 0x05, 0x0F, 0x04, 0xED, 0xF0, 0xF8, 0xFA, 0x16, 0xD9, 0xDD,
0xEF, 0x0B, 0xF7, 0xFC, 0x20, 0x03, 0xE1, 0x2A, 0x10, 0xF2, 0x07, 0x02, 0x09, 0xEA, 0x0C, 0x22,
0x4C, 0xFB, 0xC4, 0xDC, 0xF6, 0x15, 0xB5, 0xC8, 0x40, 0xF3, 0x32, 0xF7, 0xE4, 0x23, 0xF8, 0xE7,
0x53, 0xF3, 0x03, 0xE2, 0x38, 0xEF, 0x34, 0x12, 0x2E, 0x7F, 0x2D, 0x1F, 0x52, 0x0C, 0xD9, 0x06,
0x2C, 0x0C, 0x31, 0xBE, 0x3C, 0xED, 0x9C, 0x18, 0xF7, 0xE1, 0xCF, 0xAA, 0xFA, 0x39, 0xC8, 0x00,
0xF6, 0x39, 0xEE, 0xF2, 0xDA, 0xE3, 0x8A, 0x0F, 0x04, 0x19, 0xEE, 0x14, 0xE2, 0x3F, 0x80, 0xA3,
0x23, 0x0F, 0xCB, 0xD7, 0xBE, 0xC5, 0x03, 0x1D, 0x0D, 0x89, 0xE3, 0xAD, 0xEE, 0x09, 0xF1, 0x14,
0x4B, 0x9A, 0xE8, 0x01, 0x42, 0x26, 0x3D, 0xCC, 0xAD, 0x33, 0x2A, 0xBF, 0xF3, 0xBA, 0x10, 0x23,
0xA6, 0xC3, 0xE8, 0xD1, 0x22, 0xE8, 0x05, 0xD6, 0x0C, 0x2D, 0x20, 0xEC, 0x11, 0x6E, 0xDB, 0x22,
0x3B, 0xF0, 0xC7, 0x27, 0x0B, 0x14, 0xEC, 0xEB, 0xDB, 0xC6, 0xA8, 0x4B, 0xB9, 0x2A, 0xAE, 0x1B,
0x62, 0xE4, 0xF1, 0xAB, 0x43, 0xFB, 0x0D, 0x0D, 0xF6, 0x69, 0xDD, 0xF1, 0xCF, 0x31, 0xF0, 0x4C,
0x45, 0x0F, 0x39, 0xD8, 0xE8, 0x0A, 0x14, 0x3C, 0x79, 0xCD, 0xBE, 0x3E, 0xC5, 0xF8, 0x01, 0x53,
0xFB, 0x01, 0x00, 0x09, 0x0C, 0xF8, 0xEC, 0x09, 0xE7, 0xDC, 0x12, 0x12, 0xFB, 0x49, 0x2F, 0x46,
0x16, 0x28, 0x10, 0x39, 0xB5, 0xDC, 0xFC, 0x28, 0x17, 0x0F, 0x1C, 0x63, 0x2C, 0x35, 0x1B, 0x42,
0xE3, 0x01, 0x02, 0x26, 0x25, 0x16, 0xE9, 0x3A, 0x35, 0x20, 0x26, 0xDA, 0x19, 0x77, 0xCC, 0xD0,
0x08, 0x0F, 0x28, 0x0E, 0x46, 0xEA, 0x3E, 0xDD, 0x05, 0xB6, 0x53, 0x3B, 0x66, 0x33, 0xCF, 0xF3,
0xF8, 0x0E, 0x03, 0x4A, 0x1E, 0x23, 0x46, 0x09, 0xDC, 0xEF, 0x95, 0x2B, 0x25, 0xF9, 0x11, 0x3E,
0x16, 0xDA, 0x4D, 0x4A, 0x09, 0xAF, 0xF4, 0xFF, 0xCA, 0x21, 0xFB, 0xFA, 0x41, 0x02, 0x1B, 0xF1,
0x1D, 0x00, 0xFB, 0xD5, 0xB0, 0x0D, 0x05, 0xE0, 0x23, 0xFD, 0x1B, 0x30, 0x38, 0x4F, 0x1B, 0x40,
0xDC, 0x05, 0xC3, 0xFF, 0x3F, 0xC6, 0x05, 0x21, 0xDB, 0x37, 0x1E, 0x21, 0x34, 0xF4, 0x12, 0xDE,
0xDE, 0x32, 0x47, 0x31, 0x2E, 0xC3, 0x59, 0xE0, 0x0F, 0xF5, 0x28, 0x08, 0x3A, 0xC4, 0xC4, 0xF0,
0xCC, 0x05, 0x0D, 0xE5, 0xCC, 0x17, 0x0D, 0x02, 0x14, 0xF5, 0xC5, 0xE1, 0xBC, 0x07, 0x5D, 0x16,
0x0F, 0x67, 0x40, 0xFF, 0x43, 0x10, 0x18, 0x0A, 0xEF, 0x09, 0x1D, 0x15, 0xEE, 0x1D, 0xB7, 0x0C,
0x03, 0xEF, 0x31, 0xFF, 0xF2, 0xF9, 0xE0, 0x26, 0x13, 0x7F, 0xFB, 0x1E, 0x3A, 0x2F, 0x3A, 0xC9,
0xF8, 0x8B, 0xE4, 0x57, 0xFA, 0xF3, 0xE6, 0xCF, 0x16, 0x04, 0x22, 0xE0, 0x48, 0x1F, 0x39, 0xE1,
0x80, 0x45, 0x0E, 0xEB, 0x18, 0xEE, 0xE0, 0x40, 0x80, 0xFD, 0x06, 0xF8, 0xF0, 0xD4, 0xB1, 0xBF,
0x80, 0x38, 0x3E, 0x28, 0xAE, 0xF7, 0xE2, 0x19, 0x31, 0x06, 0xEA, 0xFC, 0xEC, 0x14, 0x0A, 0xB9,
0xCB, 0x80, 0x80, 0xC7, 0xA3, 0xEB, 0xA3, 0x86, 0x2B, 0xE8, 0x18, 0xD8, 0xEF, 0xBE, 0x3F, 0xB5,
0xE5, 0x46, 0x10, 0x2F, 0xD4, 0x0E, 0xBF, 0x1E, 0xF2, 0xD1, 0x1D, 0xF6, 0x1F, 0xEE, 0xE3, 0xC8,
0xB8, 0xBA, 0xE7, 0x3C, 0xF2, 0x05, 0xFE, 0xE8, 0xDC, 0x05, 0x7F, 0xF7, 0x3B, 0x09, 0x22, 0x37,
0xA9, 0x1B, 0xC0, 0xE7, 0x0D, 0xD0, 0xF1, 0x32, 0xF5, 0xE9, 0x0F, 0xED, 0xCC, 0x50, 0xF5, 0x29,
0x58, 0x95, 0xC6, 0x04, 0x2D, 0x27, 0xDB, 0xF3, 0x18, 0x0C, 0xF3, 0x0A, 0xCF, 0x22, 0xD9, 0xE0,
0xDC, 0x0B, 0x29, 0xEA, 0xCF, 0x47, 0xF5, 0x34, 0x31, 0x64, 0x79, 0x28, 0x2F, 0xC9, 0xCA, 0xDF,
0xEC, 0xF5, 0x21, 0xB7, 0x23, 0x7C, 0x5B, 0x11, 0x27, 0x50, 0xFE, 0x0A, 0x40, 0xD6, 0xCC, 0xD8,
0xF6, 0x36, 0x00, 0x26, 0xFB, 0x18, 0xB9, 0xE9, 0xF1, 0x00, 0xCE, 0x07, 0x2E, 0xE7, 0xF7, 0x13,
0xFA, 0x24, 0xF9, 0xC4, 0x03, 0x6B, 0x4E, 0x01, 0x18, 0x50, 0x06, 0xDA, 0x46, 0xC7, 0x2A, 0x0C,
0x18, 0xF9, 0x80, 0xED, 0xCF, 0x18, 0x9B, 0x20, 0x14, 0xD2, 0x03, 0x1A, 0x0C, 0xD5, 0xCF, 0x25,
0xDF, 0x1C, 0x1A, 0xA9, 0xDF, 0x3A, 0x0C, 0x09, 0xE8, 0x36, 0x0C, 0xD5, 0xFD, 0x80, 0x00, 0x1A,
0xF0, 0xE1, 0x06, 0xF0, 0x31, 0x58, 0x1B, 0x74, 0x0B, 0x19, 0x04, 0xF4, 0xFC, 0x0C, 0xCB, 0xDA,
0xF2, 0xE4, 0x19, 0xB6, 0xCC, 0x3C, 0x15, 0x31, 0x12, 0x16, 0x44, 0x2F, 0x6E, 0x13, 0xB4, 0xFF,
0x14, 0x26, 0x1C, 0x23, 0x07, 0xE7, 0xDA, 0x09, 0x27, 0x0D, 0xD2, 0x43, 0xD3, 0x28, 0x45, 0x16,
0xD3, 0x10, 0x18, 0x39, 0x28, 0xA4, 0xB7, 0x30, 0xDE, 0x11, 0x1C, 0x2B, 0xDF, 0x74, 0x4D, 0xEB,
0xA8, 0xBF, 0x7F, 0xD8, 0x19, 0xF9, 0x2C, 0x24, 0xB2, 0x13, 0xF3, 0x2C, 0xFA, 0xFD, 0xF0, 0x0F,
0x53, 0x0C, 0x0B, 0x19, 0xB5, 0xFF, 0x26, 0x09, 0x29, 0x1D, 0xF4, 0x18, 0x1A, 0xFD, 0x28, 0x35,
0x2A, 0x18, 0xE2, 0x68, 0x20, 0xF9, 0x1B, 0x3A, 0x3A, 0xC7, 0x10, 0xD6, 0x20, 0x37, 0xE8, 0xF2,
0xDD, 0xE8, 0xF5, 0xDF, 0x61, 0x02, 0x05, 0xFC, 0x23, 0x11, 0x04, 0x18, 0xFC, 0xE2, 0x0B, 0x1C,
0x28, 0x1E, 0xF6, 0xC0, 0x9D, 0x2A, 0xD0, 0xE6, 0x60, 0xD4, 0x24, 0x08, 0xFA, 0x14, 0xFA, 0xFE,
0xE1, 0x76, 0xC0, 0xCD, 0xFA, 0xDC, 0x36, 0xDB, 0xDC, 0x15, 0xC4, 0x7B, 0x00, 0x95, 0x37, 0xE4,
0x31, 0xC9, 0x0E, 0x36, 0x8A, 0xBB, 0x0B, 0xDE, 0xE4, 0xD5, 0x0A, 0xF3, 0x80, 0xEB, 0x90, 0x12,
0x17, 0xEC, 0x0D, 0xCE, 0xBF, 0xF1, 0xD8, 0xEE, 0x00, 0x11, 0x1E, 0xE7, 0x26, 0xFC, 0xE2, 0x30,
0x3C, 0xD8, 0x1D, 0xED, 0x31, 0x1D, 0xFE, 0xEE, 0x0F, 0x01, 0x18, 0x06, 0xC1, 0x54, 0xD4, 0xD0,
0x0D, 0xF8, 0xDF, 0x0A, 0x26, 0xE6, 0xF9, 0xF5, 0x0C, 0x16, 0xDF, 0x26, 0x48, 0xED, 0x58, 0xFC,
0xE1, 0x2B, 0xF2, 0xA9, 0x00, 0x29, 0x17, 0x2D, 0x00, 0x02, 0xF5, 0xCD, 0xE9, 0x16, 0xE4, 0xA9,
0xFC, 0x16, 0xDC, 0xC3, 0xC8, 0xF6, 0xA0, 0xBA, 0x3F, 0x5D, 0x01, 0xF2, 0x08, 0x34, 0xD4, 0xBB,
0xD7, 0x17, 0x3E, 0xE9, 0xB9, 0x08, 0x30, 0x0F, 0xF3, 0xDC, 0x17, 0xF1, 0xE3, 0xA8, 0x18, 0xF7,
0x2E, 0x32, 0x03, 0xF8, 0xE8, 0x07, 0xBC, 0xA6, 0x03, 0xD7, 0xEF, 0xBF, 0xFF, 0x70, 0xFE, 0xF9,
0xC2, 0x02, 0xE9, 0x39, 0x42, 0x0C, 0xEB, 0xF5, 0xDB, 0x44, 0xFE, 0xFD, 0xF3, 0xF3, 0xB1, 0xA5,
0x80, 0x09, 0x30, 0xC5, 0xCE, 0xD4, 0xC9, 0x9B, 0x07, 0x81, 0xF0, 0xD3, 0x19, 0x07, 0xB1, 0xD8,
0xC7, 0x02, 0xDC, 0x43, 0xEA, 0xCE, 0x44, 0xD0, 0xA0, 0xF6, 0xB4, 0xEE, 0x12, 0x3A, 0x05, 0xD0,
0x32, 0xDC, 0xFD, 0xB0, 0xA2, 0x24, 0x05, 0xFF, 0xFA, 0xE4, 0xFF, 0xB7, 0xAF, 0x50, 0x4C, 0xBD,
0xF0, 0xE0, 0xD6, 0x09, 0x29, 0xB3, 0xF4, 0xA1, 0x30, 0x46, 0x03, 0x1C, 0xF5, 0x06, 0xF5, 0x48,
0x2C, 0x0D, 0xDB, 0xCE, 0xE3, 0xE8, 0x71, 0xF7, 0x0D, 0xE0, 0xFE, 0x3A, 0x06, 0x9A, 0x1D, 0x4E,
0x35, 0xF4, 0x1E, 0x22, 0x1D, 0x12, 0xBD, 0x17, 0xF2, 0x10, 0x3C, 0xE6, 0x91, 0x28, 0xF0, 0x36,
0xFB, 0x00, 0x11, 0x1B, 0xE6, 0xF7, 0xEF, 0x09, 0x4A, 0xF7, 0xB6, 0x03, 0x5B, 0xC2, 0xEA, 0xDE,
0xFE, 0xF9, 0xE6, 0xFA, 0xC8, 0x13, 0x17, 0xED, 0xDB, 0xFA, 0xFD, 0x99, 0xF6, 0x16, 0x01, 0x1D,
0x42, 0x12, 0x1C, 0x5E, 0x19, 0x7E, 0x24, 0xE5, 0xCD, 0x33, 0xF2, 0xD0, 0xFC, 0x35, 0x46, 0xF5,
0xCC, 0x1A, 0xFA, 0xAC, 0x33, 0x02, 0xD8, 0xFA, 0xEB, 0xDC, 0x0C, 0x21, 0xE4, 0xFF, 0xE2, 0x18,
0x17, 0x3A, 0x33, 0x18, 0x12, 0xF3, 0x45, 0xF6, 0xFF, 0xDB, 0xED, 0x0B, 0xE7, 0x37, 0x02, 0x12,
0x19, 0x25, 0xD9, 0xDA, 0xE4, 0x05, 0x05, 0xEB, 0xF7, 0xFF, 0x29, 0x22, 0x03, 0xA9, 0xFA, 0x56,
0x18, 0x17, 0x02, 0xF8, 0xF0, 0xF2, 0x0D, 0xC8, 0xD9, 0x1F, 0x42, 0x1C, 0xEF, 0x43, 0xE1, 0xF2,
0x32, 0xF3, 0x30, 0x4E, 0x06, 0x09, 0x05, 0x1E, 0xD2, 0x2A, 0x06, 0x2D, 0x2D, 0x02, 0x26, 0x31,
0x0D, 0x2C, 0x40, 0xE8, 0x0D, 0x12, 0x1C, 0x01, 0xFD, 0x16, 0x2D, 0xC0, 0xD9, 0x0A, 0x1A, 0x26,
0x21, 0xFB, 0xC6, 0xF2, 0xFB, 0x0D, 0xB5, 0x1E, 0x2F, 0x25, 0xFC, 0x22, 0x12, 0xBC, 0x23, 0xE3,
0xDD, 0x1E, 0xF2, 0xE2, 0x2C, 0x0B, 0xC3, 0xDD, 0x23, 0xF3, 0x16, 0xEA, 0x2E, 0x1E, 0x04, 0xDD,
0xFF, 0x03, 0x16, 0x22, 0x1A, 0xE8, 0xD3, 0x03, 0xE9, 0xD2, 0x45, 0x2A, 0x20, 0x2E, 0xF1, 0x80,
0xCF, 0x0F, 0x5F, 0x19, 0x4C, 0x2A, 0xA1, 0xCB, 0x26, 0xD1, 0xD7, 0xBE, 0x25, 0xF7, 0xEC, 0x25,
0x15, 0xCB, 0xEB, 0x1D, 0x12, 0xEC, 0xC7, 0x16, 0x28, 0x26, 0xF7, 0x1C, 0xF9, 0x44, 0xEE, 0xEE,
0x1E, 0x10, 0x0B, 0xF2, 0xEC, 0x1D, 0x0F, 0xD4, 0x04, 0xEF, 0x40, 0xEB, 0xEE, 0xE4, 0xFF, 0xFC,
0xB7, 0x13, 0x15, 0x6D, 0x27, 0xEA, 0x01, 0xF0, 0xF4, 0xEE, 0xEF, 0xE1, 0x26, 0x04, 0xCF, 0xA0,
0xCD, 0xDF, 0x0A, 0xED, 0xE0, 0x07, 0x12, 0xF1, 0x2A, 0xDF, 0xF5, 0xE2, 0x07, 0x09, 0x56, 0xF4,
0xBE, 0xEF, 0x0C, 0xEE, 0xF6, 0xFE, 0xF4, 0x2B, 0xEB, 0xF4, 0xCF, 0xFE, 0xF0, 0xEC, 0xC5, 0xE4,
0xF4, 0x1E, 0x09, 0xFE, 0x30, 0xD9, 0xF6, 0xEB, 0xF1, 0x08, 0x25, 0xDC, 0xE5, 0xCC, 0x1E, 0xB8,
0xFE, 0xC9, 0xD1, 0x28, 0x13, 0xE5, 0x28, 0xEB, 0xD3, 0x1C, 0xCB, 0xDE, 0x4C, 0x5C, 0x10, 0x01,
0xEB, 0xE4, 0x12, 0xD8, 0xFC, 0x3E, 0xFA, 0xF5, 0xF5, 0x20, 0xDD, 0xE1, 0xD2, 0xF1, 0x34, 0xFC,
0x12, 0x03, 0x1B, 0xE4, 0xF4, 0xF0, 0x09, 0x03, 0xC7, 0x17, 0xD3, 0x13, 0x55, 0xE6, 0x11, 0x0F,
0xA8, 0xBD, 0x13, 0x21, 0xE5, 0x12, 0xB0, 0x2A, 0xF2, 0xF3, 0xF2, 0xFB, 0xF7, 0x13, 0xFC, 0x02,
0x26, 0xD5, 0xF0, 0x06, 0x08, 0xE6, 0xF3, 0x14, 0x35, 0x1D, 0x04, 0x07, 0x3C, 0x11, 0xE2, 0xF4,
0x0D, 0x4D, 0x09, 0x02, 0x2B, 0x0C, 0x1E, 0xFF, 0x1E, 0x20, 0xCD, 0xE9, 0x01, 0xD1, 0xFA, 0x15,
0xC9, 0x06, 0x23, 0xF6, 0xFE, 0xC6, 0xF5, 0xE1, 0x12, 0xEE, 0xEA, 0xE8, 0x2C, 0xE9, 0xEC, 0xDD,
0xE7, 0x2E, 0x06, 0xFB, 0xCD, 0xF5, 0xDC, 0x2D, 0x28, 0xEB, 0xF2, 0xFA, 0xF7, 0x2A, 0x25, 0xC9,
0x00, 0x3C, 0x0C, 0x0D, 0x3C, 0xB6, 0xF2, 0xA6, 0xA9, 0x07, 0xF1, 0xE2, 0xCD, 0xF5, 0x01, 0x18,
0x18, 0x23, 0x01, 0xFB, 0x0B, 0x13, 0x98, 0x13, 0xF4, 0xE1, 0xC9, 0xC4, 0xD6, 0xF2, 0x36, 0x1C,
0x0D, 0x24, 0x14, 0x18, 0x0C, 0x2A, 0x36, 0x20, 0xAD, 0x13, 0xE8, 0xCE, 0xDB, 0x1B, 0x1D, 0xD2,
0xF3, 0xD1, 0x3C, 0x18, 0xF3, 0xC0, 0xDD, 0x08, 0x32, 0xE2, 0x27, 0xE2, 0xC9, 0x0E, 0x17, 0xF0,
0x14, 0x0F, 0xFC, 0xF9, 0x42, 0xFF, 0xE2, 0xEE, 0xC6, 0x12, 0xF8, 0xF2, 0xC6, 0xD1, 0x1A, 0x1E,
0x22, 0x46, 0x31, 0x18, 0xE1, 0x10, 0x12, 0x21, 0x34, 0x3B, 0xE6, 0x26, 0xEF, 0x10, 0x3C, 0xF2,
0xCE, 0xF4, 0x15, 0xE0, 0x01, 0xD3, 0xF3, 0x0E, 0xDB, 0xFB, 0xB4, 0x06, 0xFD, 0x36, 0x17, 0xDC,
0x24, 0xFF, 0x80, 0xF3, 0x05, 0xF0, 0x3E, 0x0A, 0x99, 0xFB, 0x26, 0xF4, 0xF5, 0x24, 0x1C, 0xF0,
0xE5, 0xF0, 0xCB, 0xFB, 0xD8, 0xFF, 0x01, 0xC8, 0xF5, 0x3E, 0x0F, 0xDF, 0xF0, 0x21, 0x24, 0xE7,
0xEA, 0x13, 0x03, 0x09, 0xE0, 0x44, 0xEC, 0xF4, 0x24, 0x0C, 0xEF, 0xF0, 0x10, 0xF9, 0x11, 0x43,
0xE2, 0xF2, 0x0C, 0xED, 0xEC, 0x6B, 0x23, 0x32, 0x1E, 0xFC, 0x12, 0x26, 0xB9, 0x12, 0xE8, 0x17,
0x12, 0xEE, 0x2E, 0xDA, 0x05, 0x0D, 0x33, 0xCB, 0x12, 0x09, 0xF7, 0x57, 0x0B, 0xE3, 0xDA, 0xEB,
0x11, 0xEC, 0x14, 0xB3, 0xCC, 0x48, 0xAE, 0xFB, 0xFD, 0xD8, 0x2C, 0xB2, 0xED, 0xDD, 0xD0, 0xD2,
0xB7, 0x11, 0x59, 0x23, 0xF2, 0xF4, 0xF4, 0xFD, 0xFF, 0x02, 0xCA, 0x00, 0x10, 0x2B, 0x40, 0xE6,
0xFC, 0xC9, 0xDC, 0xD4, 0x16, 0x08, 0xDF, 0x30, 0x00, 0x18, 0xCD, 0xED, 0xCC, 0x29, 0xF1, 0xFC,
0xD9, 0xDD, 0xFE, 0xCE, 0xF2, 0x2B, 0xF8, 0xF4, 0xD1, 0x2F, 0xF0, 0xD5, 0xDB, 0xEF, 0x28, 0x1A,
0x10, 0xF9, 0x15, 0xBD, 0x18, 0xD6, 0xFD, 0x00, 0x35, 0x20, 0xFA, 0xD7, 0x35, 0xBE, 0x18, 0x33,
0xDC, 0xF9, 0xFA, 0xFC, 0x0D, 0xED, 0xF5, 0x1C, 0xD7, 0xD4, 0xED, 0xFE, 0x03, 0xD9, 0x03, 0x19,
0x09, 0xED, 0x39, 0xE4, 0xDD, 0xD6, 0x46, 0xC7, 0x40, 0x0D, 0x1C, 0xF8, 0xCF, 0x00, 0xDA, 0xD8,
0x0F, 0xF7, 0xCF, 0xDA, 0xFB, 0xF4, 0x24, 0xF0, 0x02, 0xF1, 0xFB, 0x00, 0x11, 0xE9, 0x06, 0xD9,
0x03, 0x2A, 0xEA, 0xEB, 0x21, 0x0C, 0xDB, 0xCF, 0x14, 0x00, 0xB9, 0xE9, 0xBC, 0xF1, 0x0B, 0xF7,
0xE7, 0xFB, 0x17, 0x0F, 0x43, 0xEC, 0xFF, 0xFD, 0x6A, 0x1B, 0xD8, 0xF6, 0x29, 0x0D, 0x03, 0xFF,
0x1A, 0xDB, 0xFE, 0xFE, 0x01, 0x22, 0x32, 0xE9, 0xFC, 0x1C, 0xED, 0x2D, 0x00, 0xF2, 0xB7, 0x23,
0xB7, 0xE7, 0x26, 0x28, 0xE0, 0x00, 0x34, 0xE6, 0x14, 0xE8, 0x18, 0x16, 0x2D, 0x08, 0x1D, 0xD8,
0x12, 0x0F, 0x13, 0xE2, 0x0F, 0x2E, 0x1E, 0x16, 0x02, 0xB1, 0x0B, 0x0A, 0x20, 0xE1, 0xAC, 0xFD,
0xD0, 0x2D, 0xE3, 0x06, 0xC0, 0xD5, 0xBB, 0x18, 0x23, 0x00, 0x11, 0xE7, 0x0F, 0xEE, 0x0D, 0xE2,
0xE0, 0xEB, 0x06, 0x06, 0x23, 0x12, 0x22, 0x1E, 0x99, 0x22, 0x21, 0xFF, 0xDD, 0x28, 0xE5, 0xB7,
0xDC, 0x05, 0x63, 0x02, 0xB1, 0x0D, 0xCE, 0xC8, 0xE2, 0x00, 0xF4, 0xF4, 0x0E, 0x26, 0x13, 0xF1,
0xE1, 0xFE, 0x0A, 0x0C, 0x02, 0x1C, 0x09, 0x1B, 0xF2, 0x4A, 0xBB, 0xEF, 0xCC, 0x07, 0xE3, 0xDC,
0xF4, 0x0C, 0x05, 0xFE, 0xFC, 0xF5, 0xDD, 0x1D, 0xEF, 0xF1, 0x07, 0xDE, 0x26, 0x0A, 0x2B, 0xB0,
0x2E, 0xFF, 0xCA, 0x2D, 0xEA, 0xF3, 0xD0, 0x0A, 0xFC, 0xFF, 0xF3, 0x08, 0xE8, 0x1E, 0xF3, 0xE8,
0x6D, 0xD2, 0xFC, 0xE6, 0x6A, 0xF0, 0x23, 0xD7, 0xE6, 0x1E, 0xF1, 0x43, 0x50, 0xB4, 0xCB, 0xEB,
0xDF, 0xF1, 0x0C, 0xFB, 0x14, 0x3C, 0xE9, 0xF2, 0x35, 0x39, 0x7C, 0x00, 0xFB, 0xCD, 0xF6, 0x26,
0xC5, 0x15, 0x11, 0xFC, 0xEE, 0x10, 0x0B, 0x0F, 0xFB, 0x62, 0xE3, 0x06, 0x13, 0x0E, 0xDD, 0xF6,
0x1C, 0x22, 0xCC, 0x27, 0x1D, 0x3A, 0xF0, 0x00, 0xFA, 0x03, 0x2A, 0xE1, 0xC0, 0xD9, 0x0C, 0x2C,
0x13, 0xE9, 0x4C, 0xF6, 0x07, 0x9A, 0xD6, 0xE3, 0xEA, 0x27, 0x17, 0x22, 0x0A, 0x00, 0xF7, 0xFF,
0xF0, 0x16, 0xEC, 0x18, 0x3B, 0x0E, 0xEF, 0x02, 0x32, 0xEA, 0x23, 0xCB, 0x08, 0xCF, 0xBE, 0xBB,
0xFA, 0x17, 0x14, 0x0F, 0xF0, 0x0C, 0xF3, 0x05, 0xE7, 0xF2, 0xF6, 0x3B, 0x1A, 0xF7, 0xEE, 0xFD,
0x14, 0x22, 0x07, 0xEB, 0xDE, 0x0B, 0x18, 0xE1, 0xF1, 0xFB, 0x04, 0x11, 0xF3, 0x01, 0xCB, 0xE9,
0x12, 0x17, 0x2F, 0xE0, 0xD5, 0xE5, 0x0B, 0xEA, 0xEB, 0xDA, 0xCB, 0xF9, 0x02, 0x0C, 0x16, 0xDE,
0x3B, 0xC2, 0x3A, 0xE1, 0x04, 0xF0, 0xF5, 0xEC, 0x09, 0xE5, 0x27, 0xBD, 0x26, 0xFF, 0x25, 0xEA,
0x09, 0x07, 0xF8, 0x0C, 0xC6, 0xFC, 0xE5, 0xFF, 0xE5, 0x1F, 0xC9, 0xD7, 0x22, 0x0B, 0x03, 0x67,
0xED, 0xD8, 0x40, 0x45, 0x4D, 0x2B, 0xCB, 0x13, 0x37, 0xDD, 0x21, 0xF6, 0x09, 0x1B, 0x0C, 0xC0,
0xEE, 0x10, 0xAC, 0x25, 0x2B, 0xE7, 0xF8, 0x4E, 0x57, 0xD5, 0xAF, 0x1F, 0x05, 0x47, 0x45, 0xF1,
0x2F, 0x3D, 0xE1, 0xFC, 0xDF, 0x10, 0xDA, 0xE6, 0x5E, 0xAD, 0x26, 0x00, 0x0C, 0x20, 0xEE, 0x1A,
0x12, 0x0C, 0xF9, 0xFA, 0x6F, 0x25, 0x32, 0xA7, 0x28, 0x3D, 0x04, 0x50, 0x27, 0x3E, 0xC7, 0x2B,
0xDE, 0x33, 0xEF, 0xF2, 0x6F, 0x03, 0x35, 0xEF, 0x12, 0x08, 0x14, 0x26, 0xF6, 0x09, 0x8F, 0xDE,
0xFB, 0x00, 0xFB, 0xF5, 0x13, 0xF4, 0xE4, 0xDD, 0x75, 0xE1, 0x1F, 0x1B, 0x1B, 0x2E, 0xEF, 0xE9,
0xF7, 0x4B, 0x01, 0x12, 0x22, 0x66, 0x4B, 0x0A, 0xD6, 0xF0, 0xF7, 0x21, 0xD5, 0xDA, 0x62, 0x07,
0x0D, 0x09, 0x49, 0xE3, 0xF2, 0x3C, 0xFE, 0x01, 0x23, 0x55, 0xC6, 0xFF, 0x46, 0x1F, 0xC9, 0x50,
0xFC, 0xD5, 0x09, 0x16, 0x1B, 0xBC, 0x14, 0xC1, 0xD4, 0xE3, 0xE2, 0x27, 0x02, 0xFF, 0x1B, 0x15,
0x0D, 0xD1, 0x0C, 0x16, 0xF2, 0xFD, 0xD5, 0x13, 0x08, 0xFA, 0x0B, 0xEB, 0xDB, 0xEB, 0xE8, 0x06,
0xDC, 0x22, 0xFF, 0x3F, 0x4B, 0xD8, 0xF9, 0x28, 0xC5, 0xF7, 0xDE, 0xDB, 0x15, 0x54, 0xD8, 0xB4,
0x09, 0xEF, 0x19, 0x12, 0xE8, 0xF4, 0x1E, 0xF4, 0x32, 0x1E, 0x04, 0xE6, 0x0D, 0x6A, 0x3A, 0xE4,
0xE6, 0x03, 0xDF, 0xDF, 0xC1, 0xE8, 0x29, 0xF6, 0x01, 0xFA, 0xA1, 0x26, 0x0B, 0xC3, 0x27, 0x2C,
0xDF, 0xDC, 0xF4, 0xE0, 0x25, 0x10, 0xD6, 0x4C, 0xFF, 0x19, 0xF3, 0xE7, 0xCB, 0xF8, 0xF3, 0xF1,
0x07, 0x2F, 0xC8, 0xF6, 0x28, 0x04, 0x01, 0x0E, 0x25, 0x18, 0xF6, 0x2C, 0xE7, 0x0C, 0x13, 0xFB,
0xE9, 0xF9, 0x3E, 0x52, 0xE7, 0x36, 0x44, 0x10, 0xEE, 0x30, 0xF9, 0xE2, 0x24, 0xEB, 0xE7, 0xFD,
0x02, 0xDB, 0xEE, 0xAB, 0x03, 0x05, 0xCC, 0x30, 0x2E, 0x32, 0xFA, 0xC5, 0x3D, 0x17, 0xF4, 0xDB,
0x0C, 0x5D, 0xF8, 0xD9, 0x14, 0xF3, 0xD4, 0x0C, 0xD7, 0xE9, 0x0B, 0x05, 0x49, 0x02, 0xF0, 0x02,
0xEE, 0x31, 0xEC, 0x23, 0xEA, 0xFF, 0xD7, 0x29, 0xF5, 0xD6, 0xE5, 0xDC, 0xF3, 0x0E, 0x03, 0xFF,
0x0E, 0x35, 0xE3, 0x25, 0xA9, 0x21, 0xD0, 0xFE, 0x00, 0x03, 0xCB, 0x25, 0x0C, 0x38, 0x2E, 0xD6,
0xEF, 0x23, 0xF4, 0x22, 0xF2, 0x1D, 0xEB, 0x22, 0xDF, 0x0D, 0xE1, 0xEE, 0x53, 0xEC, 0xEB, 0xCF,
0xB8, 0xF1, 0x0D, 0x12, 0xDC, 0xE9, 0x02, 0xF3, 0x2C, 0xCB, 0x01, 0x09, 0xB3, 0x08, 0x11, 0x24,
0xE2, 0x16, 0x21, 0xF2, 0xDF, 0x26, 0x05, 0xE7, 0x16, 0xD9, 0xDB, 0x45, 0x1A, 0xCF, 0x25, 0xDE,
0xEA, 0xC4, 0xDC, 0x45, 0xFE, 0x04, 0xA6, 0x07, 0x51, 0xEC, 0x24, 0xD1, 0x9E, 0x40, 0xEB, 0x96,
0x1F, 0xE4, 0x22, 0x03, 0x07, 0xC1, 0x2B, 0x1B, 0x15, 0xD1, 0xDF, 0xF5, 0x32, 0x1D, 0x2B, 0xD1,
0xF9, 0xD8, 0xDE, 0xC7, 0x0C, 0x22, 0x0A, 0x01, 0xBA, 0xED, 0x44, 0xD1, 0x1E, 0xF4, 0x60, 0x23,
0x05, 0x10, 0x2F, 0x50, 0xC3, 0xD6, 0x20, 0x0F, 0x07, 0x38, 0xE3, 0x47, 0x5E, 0x17, 0x1B, 0xE4,
0xD4, 0x55, 0x03, 0x14, 0xE1, 0xC0, 0xCF, 0xE4, 0x1B, 0xE0, 0xC6, 0x53, 0xF3, 0x12, 0x22, 0x03,
0x0E, 0x13, 0xCA, 0xEC, 0xF1, 0xFF, 0xDC, 0xCE, 0x58, 0xE6, 0x56, 0xDD, 0x35, 0xEF, 0x04, 0xF7,
0xF3, 0x13, 0xCF, 0x1B, 0xC4, 0x38, 0xF2, 0x4E, 0x11, 0x27, 0xD3, 0x42, 0x32, 0x06, 0xCA, 0x21,
0xC1, 0x2A, 0xEB, 0xE6, 0x04, 0xD6, 0x35, 0x09, 0x00, 0xC5, 0x15, 0xF5, 0x53, 0xD9, 0x04, 0xA3,
0x00, 0x89, 0x19, 0xE2, 0x25, 0x33, 0xF2, 0x22, 0xD8, 0x47, 0xDB, 0x1B, 0x13, 0xF8, 0xED, 0xE5,
0x8B, 0x11, 0x2E, 0x49, 0x1A, 0xA7, 0x56, 0xC7, 0xBB, 0x02, 0xDE, 0x08, 0x77, 0xEF, 0x0D, 0xC8,
0xC7, 0xAC, 0x3C, 0x34, 0xA0, 0x0E, 0xB9, 0x00, 0x38, 0x2E, 0xED, 0xFC, 0xD9, 0x3C, 0xC4, 0x1A,
0x13, 0x27, 0x42, 0x7A, 0x26, 0xF5, 0x3A, 0x55, 0x04, 0xD7, 0xF6, 0x7F, 0xB2, 0x1D, 0xC0, 0xE9,
0xF9, 0x1F, 0x16, 0x34, 0xE9, 0x1A, 0x17, 0x15, 0x24, 0xCA, 0xC1, 0x1D, 0x2B, 0x17, 0xC3, 0xF7,
0x04, 0xCC, 0xDA, 0xD3, 0x19, 0xAB, 0x09, 0x1C, 0xDE, 0xD3, 0xD3, 0x20, 0x04, 0xE6, 0xEE, 0x1B,
0x23, 0x23, 0x0C, 0xF4, 0x28, 0xD7, 0xD4, 0xE9, 0x33, 0x59, 0xD6, 0xDF, 0xF3, 0xE0, 0xF9, 0xE1,
0xC6, 0x27, 0x04, 0xE2, 0xD8, 0x0C, 0x8A, 0xE8, 0xE9, 0x15, 0x26, 0xC2, 0x8E, 0xF2, 0x14, 0xE3,
0xBF, 0xED, 0x07, 0x0B, 0x92, 0xF4, 0xEC, 0xC3, 0x16, 0xD3, 0x03, 0xBC, 0xEB, 0xF8, 0x04, 0x05,
0xBA, 0x18, 0x07, 0xFB, 0x3C, 0xDB, 0xD4, 0xE7, 0xF7, 0x27, 0x0A, 0x0C, 0x00, 0xCD, 0xF2, 0x33,
0x0E, 0x50, 0xD9, 0xC2, 0xF4, 0x34, 0x00, 0x27, 0x3A, 0xF8, 0xE4, 0xFE, 0x2C, 0xD8, 0xD8, 0x08,
0xED, 0x46, 0xB2, 0x3B, 0x0D, 0xE0, 0x2A, 0xE7, 0x2D, 0xEA, 0xF0, 0xDD, 0x50, 0xB2, 0x1B, 0xEB,
0xE6, 0xD8, 0x2E, 0x07, 0xCE, 0x50, 0x01, 0x06, 0x42, 0xD4, 0xC9, 0x47, 0xDD, 0x2C, 0x07, 0x12,
0x0C, 0x1E, 0x25, 0x12, 0x13, 0x03, 0xD8, 0xD7, 0x37, 0xEB, 0xF7, 0x0B, 0xDF, 0x21, 0x2F, 0xDD,
0x10, 0x2C, 0x14, 0x05, 0x37, 0xFE, 0xF7, 0x04, 0x01, 0xA8, 0xC8, 0x7F, 0x9D, 0x2D, 0x03, 0x14,
0xFD, 0x44, 0xE2, 0x2B, 0x1A, 0x04, 0x37, 0x52, 0xD3, 0x22, 0xCE, 0xD2, 0x10, 0x2C, 0xCF, 0x1D,
0x4A, 0xE2, 0x2B, 0x26, 0xE3, 0x0B, 0x14, 0x2C, 0x12, 0x32, 0x3D, 0xF3, 0xFC, 0xEC, 0xF3, 0xE4,
0x2E, 0x0B, 0x20, 0xFF, 0xA4, 0x13, 0xB3, 0xF8, 0x08, 0x96, 0xEC, 0xC1, 0x09, 0x23, 0x1F, 0xF6,
0x40, 0x37, 0xF1, 0x1B, 0xBD, 0xBA, 0x0C, 0xDE, 0x1F, 0xE4, 0x2C, 0x23, 0x94, 0x22, 0xE2, 0xA5,
0xE7, 0xDB, 0x1F, 0xC6, 0xE9, 0xE7, 0x46, 0xFD, 0xD6, 0x42, 0xB8, 0xDA, 0xF1, 0x20, 0xBE, 0xD3,
0x1C, 0xFE, 0x05, 0x34, 0x0F, 0x25, 0xDF, 0x08, 0xFC, 0x0D, 0xDB, 0x33, 0x15, 0x23, 0x07, 0x03,
0xA8, 0xEA, 0xFB, 0x5C, 0x36, 0xCF, 0x1C, 0x02, 0x96, 0xD6, 0x0B, 0x00, 0x41, 0x73, 0xC5, 0x80,
0xE7, 0x36, 0x0D, 0xC0, 0xD3, 0x28, 0x08, 0x42, 0xF4, 0x18, 0xE9, 0x29, 0x08, 0xCC, 0x20, 0x80,
0x06, 0xE8, 0x4E, 0xEE, 0x1B, 0xC6, 0x2C, 0x46, 0xFA, 0xD6, 0xE8, 0xF4, 0x05, 0xAF, 0x27, 0x1C,
0xEF, 0x0F, 0xF3, 0x7F, 0xF8, 0x80, 0x8B, 0x1F, 0x0E, 0xE0, 0x1D, 0x58, 0xC0, 0x41, 0x09, 0xC7,
0xF1, 0x9B, 0xFE, 0x3D, 0x3D, 0xE1, 0x05, 0xDB, 0xE2, 0x1F, 0x7F, 0x2E, 0xFE, 0x2F, 0xBF, 0xBB,
0x20, 0x14, 0x4E, 0x12, 0xE7, 0xED, 0x36, 0x2D, 0x17, 0xF8, 0xF3, 0xCC, 0xD6, 0xE0, 0x2B, 0xD6,
0x1D, 0x07, 0x0C, 0xD8, 0xE9, 0x70, 0xF3, 0x22, 0xFB, 0x1B, 0x03, 0x1C, 0xDB, 0xD0, 0x05, 0x17,
0xEE, 0xD1, 0x4F, 0x01, 0x05, 0xE9, 0x1A, 0x9D, 0xE4, 0x0A, 0x07, 0x19, 0xF8, 0xFD, 0xE3, 0xE4,
0xDA, 0xEC, 0x08, 0xFA, 0xB5, 0xF6, 0xF2, 0xD0, 0x46, 0xD8, 0x2F, 0x13, 0xF8, 0x11, 0xCD, 0x22,
0x13, 0xE0, 0x06, 0xF1, 0xC9, 0xBA, 0x29, 0xE2, 0xDD, 0xE4, 0xED, 0xF3, 0x15, 0xEB, 0x06, 0xD8,
0xF1, 0xE6, 0x14, 0x03, 0x29, 0xD4, 0x46, 0xED, 0x0F, 0x10, 0x1B, 0xDB, 0xF9, 0x10, 0xE5, 0xDA,
0x25, 0x15, 0xF9, 0xCB, 0x0D, 0xEB, 0x15, 0x18, 0x08, 0x11, 0xCE, 0x35, 0xF7, 0x1E, 0x11, 0x0A,
0x03, 0x16, 0x22, 0xF7, 0x06, 0x3D, 0xF9, 0xF8, 0x05, 0xE1, 0x41, 0xDD, 0xF1, 0xEE, 0xEE, 0x45,
0x39, 0x0D, 0x17, 0xFD, 0x11, 0xEC, 0xDF, 0xDF, 0xED, 0xB3, 0xC8, 0x0C, 0xF4, 0x37, 0x08, 0x0B,
0xEA, 0xF4, 0x2F, 0x03, 0x19, 0xC7, 0x11, 0xE0, 0x27, 0xE0, 0xF8, 0x0F, 0x07, 0x12, 0x11, 0xDC,
0xE0, 0x51, 0xCC, 0x21, 0xE1, 0x10, 0xF1, 0xEB, 0xF0, 0xEB, 0x12, 0x18, 0xD8, 0x46, 0xCA, 0xDE,
0xEE, 0xC3, 0x0D, 0xD4, 0x38, 0xEA, 0xEB, 0xC9, 0x02, 0xF5, 0x0B, 0x12, 0xE4, 0x02, 0xD4, 0xF5,
0x0B, 0x34, 0x1E, 0xE9, 0x17, 0x0D, 0xD3, 0x29, 0xFD, 0x21, 0xC0, 0xF4, 0x14, 0x19, 0x42, 0xE6,
0x32, 0x20, 0x05, 0xE1, 0xF0, 0xBD, 0xD4, 0xDC, 0xFD, 0x1B, 0xD5, 0x18, 0x2E, 0x23, 0x35, 0xF0,
0x18, 0xF4, 0x86, 0xE9, 0x29, 0xCF, 0xD0, 0xBB, 0x1A, 0xF2, 0xE9, 0x46, 0xD8, 0x02, 0x09, 0xE0,
0xE4, 0x00, 0xF2, 0x15, 0xC9, 0x1C, 0xEC, 0xBE, 0x0B, 0xF5, 0xB5, 0xCE, 0x04, 0xD9, 0xF7, 0xEC,
0x1E, 0x03, 0x02, 0x27, 0xFC, 0x09, 0xFF, 0xF1, 0x12, 0xE6, 0x2C, 0x10, 0x0D, 0x0B, 0xE9, 0xD7,
0xCD, 0x28, 0x03, 0xE0, 0x28, 0x17, 0x80, 0xB6, 0x28, 0xCA, 0x2B, 0xDF, 0x35, 0x03, 0x17, 0xDC,
0xF1, 0x51, 0x09, 0xDE, 0xF9, 0xD9, 0x15, 0xDB, 0x14, 0x0A, 0xF1, 0x08, 0xE4, 0x3D, 0x30, 0xA8,
0xEE, 0x30, 0xFD, 0xE2, 0xE0, 0x31, 0x0D, 0xFB, 0xD8, 0x15, 0xDE, 0xC2, 0xF2, 0x18, 0xD6, 0x18,
0xD6, 0x34, 0x43, 0x1E, 0xFF, 0xF9, 0x05, 0xF1, 0x06, 0xEE, 0x07, 0x29, 0xDC, 0x3B, 0x04, 0xE5,
0xF0, 0x09, 0x16, 0xCD, 0xDF, 0xC4, 0xF4, 0xCD, 0x05, 0xE5, 0xE2, 0xF8, 0x13, 0xE4, 0xCE, 0xFC,
0xEB, 0x17, 0x2F, 0x09, 0xDF, 0xFC, 0xE3, 0x0B, 0x6A, 0xFE, 0xF0, 0x09, 0x22, 0x34, 0xE7, 0xC3,
0xCA, 0x1C, 0xE4, 0xC0, 0x49, 0xE6, 0x2D, 0x0C, 0x27, 0x27, 0xD3, 0x02, 0x13, 0x0C, 0x0F, 0x06,
0x18, 0xCF, 0xA2, 0x04, 0xF4, 0x2C, 0x0F, 0x28, 0x03, 0xE8, 0x3F, 0xFB, 0xFF, 0xBA, 0xEC, 0xF1,
0x11, 0xF8, 0x15, 0xEC, 0xDE, 0xF2, 0x03, 0x1D, 0xBF, 0x03, 0x12, 0xF6, 0x2E, 0x09, 0xF1, 0xCA,
0x27, 0xEB, 0x14, 0x00, 0xC4, 0xF0, 0x1F, 0x0C, 0xC4, 0x31, 0xF0, 0xDF, 0x08, 0x24, 0x06, 0x10,
0xDF, 0xFB, 0x16, 0x24, 0x5D, 0x03, 0x25, 0x18, 0x15, 0x15, 0x10, 0xE7, 0xE5, 0xE1, 0x0E, 0xD2,
0xE7, 0x2E, 0x1B, 0x0D, 0xF9, 0xE7, 0xD7, 0x18, 0xE0, 0xEE, 0x1F, 0xE6, 0xE9, 0x0E, 0xF1, 0x31,
0xE5, 0xD2, 0x05, 0xD7, 0x23, 0x41, 0xFA, 0x21, 0x0D, 0x0B, 0xE7, 0x14, 0x11, 0x04, 0xE3, 0xFE,
0xD8, 0xE8, 0x32, 0x0E, 0xEC, 0xF9, 0xC1, 0xBC, 0x1C, 0x2A, 0xB3, 0xD4, 0xD6, 0x06, 0x25, 0x19,
0xB6, 0x2A, 0xF8, 0x0E, 0xBC, 0xD5, 0xDA, 0x08, 0xF0, 0xE7, 0xBC, 0xD3, 0xE7, 0x19, 0xCA, 0x1B,
0xFD, 0x16, 0xE5, 0x0E, 0xE4, 0x03, 0x2F, 0xF5, 0x11, 0x04, 0x01, 0x12, 0x14, 0x3A, 0x05, 0x23,
0xF8, 0x36, 0x15, 0x02, 0x06, 0xF0, 0x12, 0xDC, 0x2E, 0xED, 0x09, 0xDE, 0x1F, 0x35, 0xF0, 0xC7,
0x40, 0x06, 0x00, 0xD3, 0xFF, 0xF9, 0x00, 0xB7, 0xF3, 0x17, 0xFE, 0xFF, 0xE2, 0x03, 0x29, 0xD5,
0xE2, 0xE9, 0x00, 0x2F, 0x3E, 0xFE, 0xDD, 0xD7, 0x1B, 0xF4, 0xDB, 0x2E, 0xFB, 0xEF, 0xD0, 0xE9,
0x04, 0x48, 0x45, 0x04, 0xC0, 0x0B, 0x06, 0x25, 0x08, 0xE9, 0xEB, 0x03, 0x11, 0x03, 0xDB, 0xFF,
0xE6, 0xE2, 0x0D, 0xFF, 0xFF, 0xE0, 0x19, 0x04, 0x40, 0x0E, 0xF2, 0x21, 0x15, 0x12, 0x09, 0x09,
0x06, 0xFC, 0x14, 0xC1, 0x08, 0xDC, 0xFB, 0xF8, 0x2E, 0x10, 0x05, 0x0A, 0x1A, 0xDB, 0x10, 0xF4,
0xF2, 0xFE, 0xC7, 0xEC, 0xB7, 0x03, 0x19, 0x0D, 0xE2, 0x01, 0x0E, 0x08, 0x1A, 0xDE, 0xC7, 0xE5,
0x1D, 0x0F, 0x35, 0x37, 0x04, 0xE4, 0xF0, 0x15, 0x2E, 0x18, 0xF4, 0xFD, 0x1B, 0x23, 0xE6, 0x0D,
0x25, 0xD8, 0xEE, 0x12, 0x19, 0xC4, 0xE7, 0x00, 0x10, 0xC2, 0xEE, 0x03, 0xF7, 0xEC, 0x00, 0xB2,
0x0F, 0x47, 0xC5, 0xDB, 0x07, 0x15, 0x0E, 0xD7, 0x2C, 0x38, 0x4A, 0xF2, 0xE7, 0xEE, 0x13, 0xCA,
0xF4, 0x18, 0x0D, 0x23, 0x23, 0xE4, 0xED, 0xEE, 0x00, 0xF5, 0x04, 0xF9, 0xFC, 0xF5, 0xE7, 0x06,
0x0F, 0x19, 0x1D, 0x28, 0xFF, 0xDC, 0xF3, 0xFA, 0x05, 0x18, 0x06, 0xF7, 0x16, 0x23, 0xE5, 0xFB,
0x16, 0x2F, 0x14, 0x1B, 0xE2, 0x06, 0x2B, 0xEF, 0xF5, 0x05, 0x1D, 0xDD, 0xFF, 0xBC, 0x00, 0xFB,
0xBC, 0x11, 0x14, 0x02, 0xE7, 0xF7, 0x06, 0x33, 0xEE, 0xFF, 0x43, 0x04, 0x11, 0x24, 0xD1, 0x02,
0xD9, 0xC1, 0x1D, 0xE6, 0x2F, 0x18, 0x33, 0x30, 0x26, 0xD6, 0x1E, 0xDD, 0x0B, 0x28, 0xE9, 0xB7,
0x0E, 0x18, 0x35, 0xF9, 0xA1, 0x14, 0x29, 0x47, 0x26, 0x1C, 0x28, 0x08, 0x2B, 0xFA, 0x08, 0xC8,
0xC9, 0x0B, 0xF6, 0xF1, 0xC2, 0x02, 0xED, 0xE4, 0x2D, 0xDD, 0x1C, 0x30, 0x22, 0x09, 0xFA, 0xDD,
0x00, 0x0F, 0x46, 0xD5, 0xF8, 0xF2, 0x08, 0x00, 0xF2, 0x24, 0xF6, 0x28, 0xE7, 0x22, 0x34, 0xF5,
0xC1, 0x1A, 0xCD, 0x1B, 0x1E, 0x01, 0xF6, 0xC6, 0x2E, 0xEB, 0x0D, 0x01, 0x0F, 0x19, 0x04, 0xFE,
0xF8, 0xEE, 0xCD, 0xE6, 0x00, 0x32, 0x1B, 0x13, 0xED, 0xE6, 0x2F, 0xFD, 0xF8, 0xF2, 0xE7, 0x25,
0x99, 0xFE, 0xCE, 0xF0, 0x11, 0xE1, 0xD0, 0xC4, 0x29, 0x05, 0x32, 0xD0, 0x31, 0x43, 0xD3, 0xF3,
0xC9, 0x13, 0x01, 0xC7, 0x14, 0x2A, 0xFC, 0x08, 0xFA, 0x32, 0x30, 0x0D, 0xDC, 0x1F, 0xED, 0xDF,
0xFD, 0xD3, 0xD0, 0xFA, 0xFB, 0x24, 0xEF, 0xC1, 0x03, 0x18, 0x10, 0xF5, 0x32, 0x11, 0xDB, 0xF6,
0xEC, 0x21, 0x01, 0x21, 0xF8, 0xF6, 0x15, 0xF7, 0x2B, 0x27, 0x2F, 0xE0, 0x19, 0x08, 0xD8, 0xFD,
0xE3, 0x19, 0x0F, 0x1E, 0xE7, 0x24, 0x31, 0x06, 0x37, 0xFD, 0x11, 0xF5, 0xCC, 0xEF, 0x03, 0x25,
0x3E, 0x29, 0x23, 0xE2, 0x15, 0xEB, 0xF1, 0x2A, 0xD9, 0xE0, 0xDA, 0x1B, 0x24, 0xFF, 0xE6, 0xF3,
0xFF, 0xDE, 0xEC, 0x0F, 0x23, 0xF7, 0x07, 0xAA, 0xF3, 0x02, 0x02, 0xE5, 0xFD, 0x19, 0xD7, 0xED,
0xF8, 0xFF, 0x0E, 0x19, 0x0C, 0x00, 0x4B, 0x0B, 0xC5, 0x28, 0xF7, 0x0F, 0xF4, 0x3E, 0x03, 0xF1,
0xFD, 0x04, 0x20, 0x1D, 0x10, 0xFA, 0xCA, 0xF6, 0xFD, 0x10, 0x04, 0x28, 0x01, 0x35, 0x0C, 0xEF,
0x0B, 0xF3, 0xD3, 0xDC, 0x10, 0x26, 0xFC, 0xF7, 0xF4, 0x03, 0x18, 0xD9, 0x17, 0x02, 0xEB, 0x0C,
0xF7, 0x19, 0x0F, 0x13, 0x3B, 0xC7, 0xC9, 0xDC, 0xF8, 0xEC, 0x10, 0xDE, 0xE6, 0x0B, 0xDF, 0x12,
0x25, 0x2E, 0x0E, 0xD7, 0xCF, 0xCC, 0x44, 0xF2, 0xD1, 0x2F, 0xF1, 0xF6, 0x0A, 0x28, 0x04, 0xEE,
0xF8, 0xAE, 0x20, 0xF8, 0x03, 0x28, 0x04, 0xCA, 0x1E, 0x1F, 0xE8, 0xCA, 0x04, 0xE8, 0xD5, 0xEF,
0x20, 0x2D, 0xF0, 0xF4, 0x3F, 0x13, 0xF0, 0xD9, 0x21, 0x22, 0x1B, 0x26, 0xE3, 0xBD, 0xE5, 0xD9,
0x16, 0xFC, 0x28, 0xD8, 0x20, 0xF1, 0x31, 0xF9, 0x57, 0xE8, 0x2E, 0x0B, 0x06, 0x3C, 0xFE, 0xE6,
0xFE, 0x25, 0xEC, 0xC3, 0x0D, 0x1B, 0xEF, 0xEB, 0x02, 0x04, 0xF9, 0xD6, 0x1F, 0x08, 0x27, 0xC7,
0xFA, 0x0B, 0x2D, 0xEA, 0xF6, 0xF0, 0xE5, 0xFA, 0x1B, 0xFA, 0x0E, 0x2F, 0x30, 0x13, 0x4B, 0x13,
0x07, 0xBF, 0xDC, 0xDD, 0x26, 0x2C, 0x05, 0x03, 0xA7, 0xC2, 0xEC, 0x23, 0xCB, 0xF1, 0x21, 0x27,
0xFF, 0xC5, 0xD2, 0x32, 0x0F, 0xF8, 0xC7, 0xB6, 0x13, 0xE3, 0x35, 0xE7, 0x18, 0x07, 0xED, 0x2D,
0x01, 0xD6, 0xBF, 0x15, 0xF2, 0xD5, 0x09, 0xFE, 0xF6, 0x02, 0xDB, 0xF6, 0x13, 0x06, 0xF5, 0xCE,
0x66, 0xCF, 0x3F, 0x3C, 0x3F, 0x0F, 0x00, 0x14, 0xEB, 0xEF, 0x1E, 0x4F, 0xE0, 0xE8, 0x36, 0x31,
0xD2, 0xF6, 0x01, 0x14, 0xF3, 0x2B, 0x3B, 0x03, 0xCB, 0xFF, 0xCE, 0x0F, 0x0F, 0x2B, 0xD9, 0x0F,
0x2A, 0x12, 0xD0, 0xD4, 0xE9, 0xF8, 0xD3, 0xBA, 0xE8, 0x34, 0x18, 0x02, 0xC1, 0x1D, 0xE6, 0x02,
0x00, 0xD5, 0xF6, 0xD1, 0x13, 0x0A, 0x49, 0xD0, 0xE6, 0x18, 0xF8, 0x28, 0xE0, 0xFA, 0x03, 0xE2,
0x09, 0x08, 0xE9, 0xF6, 0x44, 0xD6, 0xCB, 0xEB, 0x01, 0x19, 0x16, 0xFE, 0xD8, 0x2F, 0x17, 0xE0,
0x07, 0xEF, 0xEA, 0xFE, 0xF1, 0x11, 0x0B, 0x50, 0xF0, 0xE3, 0x29, 0x09, 0xD8, 0x31, 0xE9, 0x27,
0x2E, 0xDD, 0x0E, 0x04, 0x4D, 0xF5, 0xDE, 0xEB, 0xB6, 0x0B, 0xF8, 0x02, 0xC8, 0xF6, 0xFC, 0x2A,
0xFD, 0xD6, 0x1F, 0x12, 0x22, 0x0C, 0xF8, 0xDC, 0xF8, 0x28, 0xFD, 0x1F, 0xD9, 0xF5, 0x21, 0x20,
0x08, 0x3A, 0x0D, 0x0F, 0xDA, 0x18, 0x0E, 0xFD, 0xFC, 0xE2, 0xE7, 0xF8, 0xC1, 0xBD, 0x1E, 0x24,
0xF9, 0xF9, 0xBF, 0x01, 0xD7, 0x31, 0x26, 0x14, 0xEE, 0xE2, 0x1B, 0x2C, 0xF4, 0x20, 0xF4, 0x32,
0x16, 0x1F, 0x27, 0x29, 0x22, 0xF2, 0xE7, 0xF5, 0xED, 0x08, 0xF9, 0x21, 0x92, 0x09, 0x0D, 0x0D,
0xE3, 0x19, 0xF5, 0x09, 0x1F, 0x05, 0x18, 0xD5, 0x08, 0x08, 0xF2, 0x19, 0xC1, 0x0E, 0xE9, 0x27,
0xF5, 0x04, 0xD1, 0x3C, 0xFD, 0x1F, 0xDA, 0xFB, 0xE8, 0xEA, 0xE6, 0xFC, 0x10, 0x32, 0xD8, 0xF8,
0xE0, 0x09, 0xFB, 0x23, 0xE2, 0xCC, 0xF3, 0x1D, 0x0E, 0xE0, 0x12, 0xD7, 0x2B, 0xFD, 0x02, 0xC5,
0xDB, 0xCE, 0xC2, 0xBB, 0x05, 0xE9, 0xFE, 0x20, 0x0B, 0xC0, 0xC9, 0xF2, 0x36, 0x00, 0xEF, 0x30,
0x11, 0xCF, 0xF6, 0xED, 0xF4, 0x1C, 0xEC, 0xF1, 0x0C, 0x00, 0xE4, 0x1A, 0xE1, 0x37, 0x56, 0xFA,
0xFC, 0xB0, 0xFE, 0x07, 0x1E, 0xF0, 0x0B, 0xE6, 0x0F, 0x04, 0xDF, 0x32, 0x0B, 0x2D, 0xD9, 0xAD,
0x30, 0xF7, 0x11, 0x03, 0x3C, 0x04, 0xE1, 0xED, 0x0B, 0x2D, 0x05, 0x16, 0xD7, 0xC3, 0x1E, 0x2B,
0x03, 0x17, 0x13, 0x18, 0xE5, 0xE3, 0x3D, 0x15, 0xFB, 0xF2, 0xE0, 0xAC, 0x14, 0xD1, 0x2D, 0xB8,
0xF5, 0x37, 0xF4, 0xFD, 0xC7, 0x49, 0xEF, 0x43, 0xF5, 0x26, 0x3E, 0xF6, 0xD2, 0xE6, 0x27, 0x37,
0xDB, 0x05, 0xF6, 0xB8, 0xE2, 0x07, 0x12, 0xF5, 0x31, 0x08, 0x22, 0x0E, 0x2F, 0x23, 0xA8, 0xE4,
0x03, 0x18, 0xDE, 0x0C, 0x07, 0xCA, 0xDD, 0x1D, 0x50, 0xC1, 0x09, 0xC1, 0x2C, 0xC4, 0xF2, 0xD2,
0xC0, 0x1E, 0xD9, 0xF0, 0xEB, 0xEA, 0x05, 0xE2, 0xFE, 0xE1, 0xE4, 0x1E, 0x34, 0xEE, 0xF7, 0xD7,
0xFE, 0x12, 0x31, 0xF3, 0xE7, 0xFA, 0xE0, 0x19, 0x34, 0xC5, 0x08, 0xBB, 0x39, 0xDD, 0x25, 0x2D,
0xCB, 0xFF, 0xE1, 0xFD, 0x19, 0x04, 0x0F, 0xC8, 0x4B, 0xE0, 0xF9, 0xDD, 0x39, 0x23, 0xA8, 0xF1,
0xF4, 0xD3, 0xAE, 0x0E, 0x11, 0xDB, 0x07, 0xD8, 0x1C, 0xE0, 0xF8, 0x09, 0x15, 0xC7, 0x03, 0xDD,
0x12, 0x0B, 0x38, 0x0E, 0x0F, 0xDB, 0x06, 0xD2, 0xD0, 0xF9, 0x11, 0xF3, 0x16, 0x13, 0x23, 0xEF,
0x01, 0xE5, 0xF9, 0xCB, 0x0D, 0x3B, 0x1F, 0x02, 0xF6, 0x01, 0xE6, 0x1A, 0xF8, 0x0E, 0x10, 0x09,
0xE7, 0x29, 0x24, 0x12, 0x00, 0x0F, 0xEB, 0x3B, 0x09, 0xFC, 0x0A, 0xF8, 0xEA, 0xE9, 0xFF, 0xE9,
0xD8, 0xDA, 0x07, 0x40, 0xDA, 0xE6, 0xE9, 0x1E, 0x42, 0xFA, 0x20, 0x0C, 0x18, 0xE3, 0xDF, 0xCE,
0xDD, 0x31, 0xD0, 0x1E, 0x47, 0x12, 0xBC, 0x06, 0x11, 0x03, 0x1E, 0xF7, 0xE6, 0x00, 0x0A, 0x20,
0xED, 0xFB, 0x01, 0xD1, 0xF8, 0xCA, 0x24, 0x1D, 0xDC, 0x3C, 0xCE, 0xF0, 0xEE, 0x30, 0x0B, 0xE2,
0x25, 0x0F, 0x3A, 0x31, 0xD2, 0x03, 0x19, 0xE3, 0xF5, 0xFF, 0x1B, 0x26, 0x56, 0xE1, 0x23, 0x5A,
0x19, 0x21, 0xCD, 0x31, 0xF0, 0x1E, 0x2E, 0xEB, 0xB5, 0xDC, 0x14, 0x20, 0x47, 0xD9, 0xC8, 0x15,
0x32, 0xF8, 0x1D, 0xF6, 0x07, 0xF8, 0xF4, 0x1F, 0xE0, 0x3D, 0xEC, 0x22, 0xE5, 0xD5, 0xFD, 0x39,
0xE1, 0x4A, 0xF1, 0xC7, 0x0E, 0xFA, 0x11, 0x0E, 0xF0, 0xF1, 0xD9, 0x20, 0x19, 0x1C, 0xF4, 0x1E,
0xF4, 0xF9, 0x24, 0xCB, 0x10, 0xEA, 0x0C, 0xB2, 0x40, 0x04, 0xCF, 0x1B, 0xC5, 0x0E, 0xC5, 0xF9,
0x38, 0xFE, 0x1B, 0xE4, 0x05, 0x1C, 0xEB, 0xE8, 0x1D, 0x2D, 0xCA, 0xED, 0xF3, 0x0F, 0xFB, 0xFD,
0xF3, 0x47, 0x1A, 0xEC, 0x22, 0xEE, 0xCA, 0xDE, 0x2E, 0x1E, 0x00, 0xD8, 0xF7, 0x05, 0x1C, 0xFC,
0x2D, 0x0E, 0xB3, 0xDD, 0xF8, 0x07, 0x1A, 0xFF, 0xE0, 0x02, 0xE4, 0x2E, 0x06, 0x39, 0xF0, 0xE5,
0x0F, 0xFC, 0x3B, 0xDE, 0xC8, 0xF1, 0xD6, 0xFB, 0x3B, 0x1D, 0x38, 0xBC, 0xF8, 0xFE, 0x3C, 0x03,
0xFF, 0x09, 0xEB, 0xB2, 0xF3, 0xF3, 0x04, 0x20, 0xD4, 0xFF, 0x10, 0x41, 0xE4, 0x1E, 0xDF, 0xDC,
0x2E, 0x26, 0xDE, 0xF8, 0x18, 0xFF, 0xF3, 0x2F, 0xC9, 0x2A, 0xF9, 0xF7, 0xE2, 0xE4, 0x3A, 0x07,
0xC6, 0xCB, 0xEA, 0x2F, 0xF0, 0xDB, 0x18, 0xC8, 0x19, 0x0E, 0xDD, 0xD4, 0xD4, 0x39, 0xFF, 0x16,
0x30, 0xEB, 0x23, 0xD4, 0xFD, 0xF5, 0xFD, 0x0A, 0xEF, 0xDC, 0xFB, 0x1A, 0xD2, 0xE6, 0x07, 0x31,
0x01, 0x10, 0x08, 0x06, 0xC2, 0xDA, 0x14, 0x09, 0x1C, 0xFA, 0xEE, 0xE2, 0x15, 0xFB, 0xE9, 0xE3,
0xEF, 0xE2, 0xD5, 0xC7, 0xBE, 0xCB, 0xED, 0xF4, 0x0E, 0xDA, 0xC7, 0xE9, 0x23, 0x08, 0xE4, 0x1E,
0x0D, 0x16, 0x28, 0xDC, 0xD0, 0x03, 0xFB, 0x35, 0x32, 0xE2, 0xEB, 0x25, 0x08, 0x2A, 0xFF, 0xE7,
0xE8, 0x5F, 0x9B, 0x12, 0xD5, 0x16, 0xC2, 0xF2, 0x0C, 0x14, 0xE9, 0xD9, 0xE8, 0xCE, 0xEB, 0xEF,
0x0D, 0x22, 0xBF, 0x2A, 0x09, 0xF7, 0xE9, 0xE3, 0xF0, 0xD8, 0xCE, 0x24, 0xFB, 0x02, 0xBC, 0xE3,
0x0B, 0x05, 0x2F, 0x25, 0x2F, 0x10, 0x0E, 0xDB, 0xEB, 0xED, 0x1B, 0xD1, 0x1C, 0xF6, 0x18, 0x2C,
0x04, 0x31, 0x02, 0x1B, 0xFB, 0xFE, 0x1F, 0x12, 0x2F, 0x08, 0xDA, 0x0A, 0x38, 0x23, 0x09, 0xD2,
0x31, 0xFD, 0x0D, 0x2B, 0x1B, 0x08, 0x20, 0x14, 0x01, 0x03, 0xFF, 0x17, 0x11, 0xEA, 0xF5, 0x0B,
0xF1, 0x29, 0xBC, 0x21, 0xE2, 0xE1, 0x1A, 0xF6, 0x0D, 0x01, 0xEE, 0x0B, 0xB2, 0x19, 0xF9, 0x2F,
0x10, 0xED, 0x48, 0xCE, 0x41, 0x07, 0x25, 0x0E, 0xFF, 0x23, 0x46, 0x0D, 0x3B, 0xFF, 0x0E, 0x1F,
0xFF, 0xF8, 0xF6, 0xF8, 0x13, 0xFA, 0x23, 0xE2, 0xE5, 0xB6, 0xDA, 0xB3, 0xEA, 0xC7, 0xFC, 0xED,
0xEC, 0xD5, 0x0F, 0xC2, 0xF5, 0xDF, 0x04, 0xFE, 0x40, 0xE1, 0xEC, 0xE0, 0x1D, 0xF9, 0xD5, 0xE4,
0x2B, 0xE2, 0x36, 0xFA, 0xEE, 0x11, 0x12, 0x1C, 0x16, 0x34, 0x1F, 0x02, 0x27, 0x0B, 0xCE, 0xF3,
0xE3, 0x03, 0xE3, 0x02, 0xCA, 0xB4, 0xF9, 0x00, 0x25, 0x2A, 0xCF, 0xC5, 0x03, 0xF0, 0x0B, 0xEB,
0x01, 0xEA, 0x04, 0xCB, 0x2C, 0x42, 0x42, 0xE2, 0xDC, 0x11, 0x43, 0x35, 0xDE, 0xF7, 0x02, 0x0A,
0xEE, 0xDC, 0xE4, 0xE8, 0xEE, 0x1F, 0x10, 0x05, 0x28, 0x01, 0x04, 0xFC, 0xF7, 0x00, 0xFA, 0x11,
0x1E, 0x13, 0x13, 0x09, 0xFC, 0x16, 0x06, 0x05, 0xF6, 0xEB, 0xE5, 0x0B, 0xD7, 0xFA, 0x03, 0x2C,
0x02, 0x1E, 0xF3, 0xFE, 0x06, 0xCF, 0xEB, 0xDD, 0x0E, 0xF3, 0xE7, 0xD0, 0xD9, 0x26, 0x0C, 0xC5,
0x13, 0x10, 0xE5, 0xE7, 0x18, 0x33, 0xF8, 0x15, 0x06, 0xFD, 0x33, 0x1B, 0x1F, 0x3E, 0x01, 0x28,
0x21, 0x47, 0x40, 0x45, 0xE4, 0x04, 0xFD, 0x52, 0xF6, 0x0C, 0x0F, 0xC6, 0xC0, 0x0F, 0x2B, 0x01,
0xCB, 0x36, 0x06, 0xFC, 0xD2, 0xF7, 0xEB, 0x0C, 0x07, 0xE8, 0x12, 0x3C, 0x14, 0x10, 0xF3, 0xDE,
0x21, 0x13, 0x41, 0x08, 0x36, 0xF0, 0xE6, 0xE1, 0xD0, 0xDD, 0xF1, 0xFB, 0xF2, 0x1D, 0xCC, 0x19,
0xE9, 0xF9, 0xE0, 0x13, 0xE6, 0xE7, 0x15, 0xFA, 0xE9, 0x07, 0xDA, 0x05, 0xD7, 0x2C, 0x13, 0xFE,
0xCF, 0xCA, 0x00, 0xEC, 0x04, 0xEC, 0xF7, 0xE4, 0x1C, 0xE0, 0x2C, 0xF2, 0xF5, 0xF6, 0x0B, 0x15,
0x1D, 0xF7, 0x11, 0xE8, 0xF7, 0xFC, 0x3D, 0xD2, 0xF1, 0xC5, 0x00, 0x0A, 0xFF, 0xF8, 0xE7, 0xD8,
0xF5, 0xEF, 0xD7, 0x28, 0x34, 0x11, 0xFE, 0x41, 0xB2, 0x0F, 0xE9, 0x00, 0xF3, 0xEB, 0x02, 0x15,
0xDE, 0xF8, 0x0B, 0x23, 0x24, 0xDD, 0x11, 0x09, 0xF2, 0xF3, 0x10, 0x0B, 0x22, 0x0E, 0x04, 0xFF,
0xF4, 0x29, 0x12, 0xF2, 0xDB, 0xEB, 0xB0, 0x25, 0x06, 0xCD, 0x14, 0xE2, 0x02, 0x03, 0x27, 0xE1,
0x07, 0x01, 0xE5, 0xF4, 0xF8, 0x11, 0xF4, 0xEB, 0xFC, 0x17, 0x47, 0x05, 0x11, 0xFA, 0xFB, 0x09,
0x0F, 0xFA, 0xC3, 0x0F, 0xE7, 0x0B, 0x1B, 0x1E, 0xE7, 0x10, 0xEC, 0xF1, 0x09, 0x2B, 0x04, 0xDD,
0x09, 0x11, 0x3B, 0x2B, 0xF7, 0x0F, 0xF6, 0x02, 0xFD, 0x0C, 0x02, 0x00, 0x09, 0x08, 0x1A, 0x24,
0xFB, 0x01, 0x01, 0xFA, 0xEB, 0xD3, 0xFF, 0xE7, 0xFB, 0x1C, 0x08, 0x02, 0xFB, 0x11, 0x26, 0x01,
0xFE, 0x0C, 0xF8, 0xEC, 0x25, 0x15, 0xF1, 0xD1, 0x09, 0x16, 0x07, 0x00, 0xEE, 0xFF, 0x35, 0xF1,
0xCF, 0x0C, 0x00, 0xEE, 0xCA, 0x59, 0x0E, 0x10, 0xE8, 0xF2, 0xFF, 0xED, 0x09, 0xC4, 0xD7, 0x0D,
0xEA, 0x13, 0x0B, 0x3F, 0xB6, 0xDC, 0xD1, 0x32, 0x29, 0xFE, 0x19, 0x30, 0xE8, 0x1F, 0xE0, 0x37,
0xF3, 0x21, 0x45, 0xF7, 0xFB, 0x0E, 0xD7, 0xF7, 0xFE, 0xE3, 0x02, 0xE2, 0xD0, 0x10, 0xE1, 0xFA,
0x19, 0x07, 0x0A, 0x04, 0x19, 0xF0, 0x14, 0x0E, 0xFF, 0x05, 0xF0, 0x01, 0x28, 0xF8, 0x13, 0xC3,
0x04, 0x21, 0xEE, 0x01, 0xEB, 0xEC, 0xEC, 0x3C, 0x01, 0x08, 0xE3, 0xA5, 0xE4, 0xE0, 0xF3, 0xD8,
0xDC, 0xE0, 0x38, 0xED, 0xFF, 0x1D, 0x0E, 0xEF, 0xE3, 0x17, 0x11, 0x28, 0xFD, 0x1A, 0x08, 0xF3,
0xF1, 0xCF, 0x2F, 0x1F, 0x02, 0xDC, 0x08, 0x00, 0xDC, 0xDA, 0x56, 0x0A, 0xC5, 0x12, 0x1D, 0xF4,
0xEF, 0xF6, 0x04, 0xD0, 0xF7, 0x16, 0x2D, 0xC8, 0x08, 0x23, 0xEA, 0x18, 0xEC, 0xDC, 0x01, 0xE5,
0x12, 0x12, 0xDE, 0xE4, 0x0B, 0x02, 0xFB, 0x10, 0xE9, 0x10, 0x13, 0x0C, 0xF7, 0x0C, 0x11, 0xFF,
0xD6, 0x04, 0x23, 0x1C, 0x12, 0x02, 0x20, 0x12, 0x05, 0x22, 0xDF, 0x01, 0xFE, 0x0F, 0x2D, 0x2A,
0xD9, 0x37, 0xF4, 0xF9, 0x0D, 0x0F, 0x1C, 0xF7, 0x1B, 0xE2, 0xE8, 0xE3, 0xE9, 0x1C, 0xFB, 0xDD,
0x14, 0x08, 0x16, 0x21, 0xD3, 0xDA, 0xF7, 0x26, 0x08, 0x0C, 0x16, 0x02, 0x46, 0xF8, 0xF6, 0xE1,
0x19, 0xC1, 0x10, 0x16, 0x13, 0xEF, 0xF7, 0xFC, 0x13, 0xF7, 0xE6, 0x02, 0xFF, 0x2A, 0x07, 0xE5,
0x20, 0xF9, 0xEF, 0xDF, 0xD4, 0x20, 0x06, 0xE8, 0xED, 0x27, 0x0E, 0xFA, 0xEE, 0xE6, 0x01, 0xEF,
0xFA, 0xDA, 0x1D, 0xF7, 0x07, 0xE7, 0x02, 0x1B, 0xFA, 0x09, 0x02, 0x02, 0xF3, 0x2F, 0x38, 0x0C,
0xE9, 0xEE, 0xD3, 0xD4, 0xED, 0x07, 0xF2, 0x0D, 0xF4, 0x10, 0xEC, 0xDC, 0x15, 0xE9, 0xE4, 0x07,
0x12, 0x32, 0x23, 0xF7, 0x38, 0xD3, 0xF6, 0x0E, 0x06, 0x22, 0x02, 0x04, 0x2D, 0xFF, 0x15, 0xE9,
0x40, 0xF3, 0xF7, 0xD8, 0xE8, 0x3F, 0x0B, 0x15, 0x05, 0x17, 0x09, 0x0C, 0x05, 0x36, 0x09, 0x4C,
0x06, 0x08, 0x0A, 0xF3, 0x1D, 0xCF, 0xDD, 0x2A, 0x06, 0x05, 0xE7, 0xD4, 0xE8, 0xFB, 0x21, 0x07,
0x00, 0x17, 0xD1, 0xF5, 0xF8, 0xF6, 0xF3, 0xF6, 0x11, 0x24, 0x2D, 0x33, 0x29, 0xD3, 0xC8, 0xF0,
0x17, 0xFD, 0x0C, 0x09, 0x25, 0x1F, 0xFD, 0xFA, 0xC3, 0xF1, 0x26, 0x17, 0xE4, 0xED, 0xF7, 0x29,
0x00, 0x11, 0x3A, 0x2B, 0x31, 0x1C, 0x28, 0xE8, 0xF2, 0xE5, 0x16, 0x20, 0x21, 0xF6, 0x29, 0x22,
0xE5, 0xF4, 0xEB, 0x23, 0xEE, 0xF9, 0xFB, 0x07, 0xDA, 0x12, 0xDC, 0x04, 0x01, 0xFB, 0x02, 0xFE,
0x2F, 0xCB, 0x21, 0x11, 0xEF, 0x08, 0x18, 0xEE, 0xED, 0xEF, 0x0D, 0x3C, 0x11, 0x34, 0x2C, 0xF5,
0x1C, 0x02, 0xEC, 0x0E, 0x06, 0x01, 0xF5, 0xE7, 0x10, 0x02, 0xE3, 0x08, 0xEB, 0x05, 0xF4, 0x08,
0x2D, 0x06, 0xF9, 0x08, 0xE8, 0x14, 0xF3, 0xFC, 0xF1, 0x01, 0x13, 0xEF, 0xD3, 0xDD, 0xEE, 0x4B,
0xDA, 0x12, 0x1A, 0xF4, 0xF7, 0xFB, 0xD5, 0x02, 0x20, 0xEB, 0xBD, 0x0F, 0xE5, 0x04, 0xFA, 0xE6,
0x18, 0xF4, 0xE9, 0x15, 0xFA, 0xFD, 0x38, 0x1C, 0xF0, 0xFE, 0x33, 0xFA, 0xF7, 0xEB, 0xF1, 0xF0,
0x2E, 0x18, 0xDF, 0x08, 0x1F, 0x00, 0xE3, 0x27, 0xFD, 0xF2, 0xE5, 0x0D, 0xD9, 0x1A, 0xFB, 0xE3,
0xEB, 0x1D, 0x03, 0x05, 0xD9, 0xE7, 0x1B, 0x55, 0xEC, 0x0C, 0x08, 0xF4, 0x01, 0xF8, 0xDD, 0x1C,
0xCF, 0xE0, 0x06, 0xDD, 0xB9, 0x13, 0xF6, 0xF2, 0x09, 0xE8, 0x08, 0xD2, 0xEB, 0xF1, 0x12, 0x05,
0xF9, 0x00, 0x00, 0xF0, 0xFA, 0xEC, 0xE8, 0xF6, 0x43, 0x06, 0xF4, 0xEC, 0x01, 0xF5, 0xE1, 0xD4,
0x24, 0x1F, 0x16, 0xD9, 0xCB, 0xF8, 0x06, 0xFB, 0x09, 0x0F, 0xE0, 0xF7, 0x0D, 0xFE, 0x3F, 0xFD,
0xF7, 0xEF, 0xD4, 0x03, 0x08, 0x12, 0x13, 0x18, 0xE8, 0x24, 0x0D, 0xF4, 0xF8, 0xE9, 0x03, 0x31,
0xD6, 0xD4, 0xFD, 0xFE, 0x08, 0x25, 0x36, 0xED, 0x0A, 0x0C, 0x27, 0xE8, 0xFA, 0xFF, 0x11, 0xF4,
0xE8, 0x06, 0xED, 0x06, 0x31, 0x1B, 0xEC, 0x18, 0xF5, 0x01, 0x2B, 0x2A, 0xE9, 0xF6, 0x1E, 0x3B,
0xE0, 0x46, 0x05, 0xD9, 0x0A, 0xEC, 0xD5, 0xF8, 0x1D, 0x18, 0x28, 0xD4, 0xFB, 0x02, 0x10, 0x15,
0x24, 0xFC, 0xBA, 0x14, 0x11, 0x20, 0xF8, 0x2B, 0xD4, 0x31, 0x23, 0x07, 0xE5, 0xE9, 0x11, 0x2B,
0x16, 0x07, 0x21, 0xE9, 0x02, 0xEE, 0xE2, 0x0C, 0xF8, 0xF2, 0xF5, 0x2B, 0x0A, 0x0D, 0x2E, 0x14,
0xCF, 0xF4, 0xF9, 0x1B, 0xFD, 0x12, 0x06, 0xE6, 0x0B, 0xF7, 0xF6, 0x25, 0xE2, 0x02, 0x2C, 0x1A,
0xF8, 0x26, 0x03, 0x15, 0x07, 0xD2, 0xED, 0x01, 0x0F, 0xEA, 0x16, 0xF7, 0xD9, 0x2E, 0x13, 0x06,
0x08, 0xFD, 0xEB, 0xE8, 0x1B, 0x0C, 0x08, 0x17, 0xE1, 0x13, 0x44, 0xFE, 0xF2, 0x2B, 0x08, 0x02,
0x15, 0x02, 0x09, 0xF7, 0x01, 0x22, 0x00, 0x05, 0xF0, 0x04, 0x1E, 0x16, 0xEC, 0xDC, 0xFB, 0xEE,
0xEF, 0xF2, 0xF9, 0x14, 0xE7, 0xF5, 0x05, 0x29, 0xF2, 0xE0, 0xF4, 0xDF, 0x08, 0xE7, 0xDD, 0x07,
0xFE, 0x02, 0x10, 0xF0, 0x1C, 0x11, 0x14, 0x0E, 0x35, 0xDA, 0x03, 0xFA, 0xF9, 0xFD, 0x0A, 0x28,
0xEE, 0xF1, 0xF9, 0x02, 0xDA, 0x10, 0xDF, 0x0B, 0xFF, 0xE0, 0x03, 0x0E, 0x09, 0xFF, 0xF7, 0xE6,
0xD3, 0xB2, 0x28, 0xBA, 0x34, 0x16, 0x08, 0xE9, 0x71, 0x0A, 0x20, 0xF1, 0xE6, 0x13, 0x2E, 0x13,
0x04, 0x3F, 0xF3, 0x66, 0x17, 0x50, 0x3F, 0xD2, 0xE5, 0x22, 0x1C, 0x98, 0xFC, 0xDD, 0xE7, 0x28,
0x0E, 0x35, 0x11, 0x13, 0x3D, 0x22, 0xD6, 0xFC, 0xD9, 0xB2, 0xF7, 0xE2, 0xD1, 0xD0, 0x06, 0x0A,
0x02, 0x2D, 0xD1, 0x15, 0xBF, 0x0F, 0x34, 0x2A, 0xFB, 0xB0, 0xF9, 0x34, 0x3F, 0xF8, 0xFB, 0xCD,
0x2F, 0x44, 0xD8, 0x4B, 0xD1, 0xF3, 0x07, 0x21, 0x99, 0xF2, 0xF1, 0x03, 0x1A, 0xEB, 0xC2, 0xF6,
0xF1, 0xC7, 0x08, 0x9A, 0xF0, 0xAB, 0xBA, 0x2E, 0x16, 0xE7, 0xF8, 0x56, 0x13, 0x1B, 0x1B, 0xCE,
0x0C, 0xCB, 0xF4, 0xF5, 0xC0, 0xCD, 0x24, 0xF1, 0x28, 0x4E, 0x15, 0x35, 0x2F, 0x34, 0x0A, 0xD9,
0x07, 0xC3, 0x1B, 0xEA, 0x53, 0xFC, 0xD8, 0xDA, 0xFA, 0x43, 0xF2, 0xD8, 0xCA, 0xF2, 0xFA, 0x1B,
0xF3, 0xE0, 0x42, 0xD9, 0x59, 0x0C, 0xC5, 0xF4, 0x7C, 0x0D, 0x83, 0xF7, 0x74, 0x0C, 0x12, 0xF0,
0xC9, 0xFE, 0x08, 0xFC, 0x7C, 0x24, 0x36, 0xF9, 0xCD, 0x04, 0x74, 0xFC, 0xEA, 0x30, 0x75, 0xF3,
0xD5, 0xE6, 0xDB, 0xFA, 0xF7, 0xDD, 0xA4, 0x06, 0xF3, 0x21, 0xBD, 0xEC, 0xAD, 0x1C, 0x47, 0xE8,
0xFF, 0xEE, 0xC4, 0xE6, 0xE1, 0x00, 0x66, 0xFE, 0x0E, 0xFF, 0xBC, 0xE4, 0x97, 0x07, 0x2B, 0x09,
0xF6, 0xEA, 0x57, 0x18, 0x22, 0xE7, 0xED, 0xE3, 0x03, 0x19, 0x95, 0xCC, 0xE2, 0x33, 0xD6, 0x0C,
0xA4, 0x1C, 0x01, 0xFB, 0xE5, 0xEC, 0x20, 0xDD, 0xF5, 0xF6, 0xC6, 0xD3, 0x13, 0xFA, 0x47, 0xF4,
0xE6, 0x09, 0xEE, 0x16, 0xFF, 0xDA, 0x1B, 0xF6, 0x27, 0x09, 0x2A, 0xDC, 0xD5, 0x05, 0x5A, 0x09,
0x12, 0x00, 0xA7, 0x1A, 0x44, 0x36, 0x75, 0x01, 0x2D, 0x12, 0x26, 0x12, 0x7F, 0xE7, 0xCB, 0xFE,
0x3F, 0x16, 0x83, 0x25, 0xC6, 0xFE, 0xB1, 0xF9, 0x92, 0xFC, 0x6D, 0xDA, 0x2F, 0xFF, 0xBB, 0xD4,
0xFB, 0xF7, 0xC3, 0x13, 0xF7, 0x18, 0xCD, 0x07, 0x48, 0x07, 0x97, 0xEE, 0x39, 0xED, 0x05, 0x0C,
0xC4, 0x0D, 0x28, 0x1A, 0xD0, 0x0B, 0x7B, 0xF0, 0x52, 0xDA, 0x7F, 0xCE, 0x4D, 0xE4, 0xF6, 0xF3,
0x1D, 0x0D, 0xA7, 0xFC, 0x7A, 0x0F, 0xB7, 0x02, 0x12, 0x06, 0xE5, 0x0F, 0x8D, 0xE3, 0x7D, 0x06,
0xCE, 0x07, 0xF4, 0x0F, 0x0D, 0x19, 0x2B, 0xF2, 0x20, 0xEB, 0xCF, 0xD6, 0x52, 0x02, 0x29, 0xF3,
0xA3, 0x04, 0x50, 0xE7, 0x5E, 0x03, 0x23, 0xEF, 0xB8, 0x0A, 0x97, 0xE6, 0xF8, 0xE9, 0xD1, 0x2B,
0x2D, 0x1F, 0x2A, 0xEC, 0x88, 0x21, 0x9C, 0xF0, 0x67, 0xEA, 0x6D, 0xE9, 0xC6, 0xFD, 0xA3, 0x06,
0x53, 0x10, 0xC4, 0x15, 0xB2, 0x16, 0xF8, 0x13, 0xA5, 0x07, 0x3B, 0xF7, 0x61, 0xEE, 0xF2, 0x0D,
0xD0, 0xE7, 0xDD, 0x34, 0x45, 0xF7, 0x64, 0x23, 0x9C, 0x07, 0x4D, 0xFE, 0x85, 0x53, 0xD9, 0x37,
0xA6, 0x22, 0x1D, 0xE9, 0xFA, 0x32, 0xE3, 0xEC, 0x51, 0xE8, 0x5E, 0xE6, 0x72, 0x14, 0x09, 0xE4,
0xC6, 0xF2, 0x8D, 0x0F, 0x21, 0x19, 0x0B, 0x23, 0x31, 0x24, 0xB3, 0x19, 0xFE, 0x35, 0x19, 0x26,
0x07, 0x31, 0x16, 0x0F, 0x06, 0x00, 0x6F, 0xD3, 0xBE, 0x0A, 0xD4, 0x15, 0x0F, 0x18, 0x75, 0x05,
0x3C, 0xE7, 0x09, 0xF5, 0x55, 0xEB, 0xA7, 0xE2, 0x37, 0xDF, 0xFE, 0x30, 0x5D, 0x16, 0x22, 0x49,
0x18, 0x13, 0x3C, 0xD3, 0x7E, 0x0E, 0x8D, 0xE5, 0x7E, 0xCA, 0xDC, 0xF9, 0xC5, 0x24, 0xCE, 0xF5,
0x5B, 0x05, 0x3E, 0xEB, 0x13, 0xDF, 0xBA, 0xD1, 0x94, 0xE5, 0x27, 0x2F, 0x44, 0x06, 0xC5, 0x0E,
0x23, 0xFF, 0x96, 0xFE, 0x73, 0x23, 0xE3, 0xF8, 0xD4, 0xF6, 0x28, 0xF2, 0x41, 0xF0, 0xF6, 0xFE,
0x27, 0xFC, 0x6C, 0xD7, 0xFD, 0xEF, 0x05, 0x0D, 0x23, 0x01, 0x84, 0x09, 0x9B, 0x2C, 0x16, 0xE3,
0x12, 0xFA, 0x78, 0xFF, 0x40, 0xB5, 0xB1, 0xEA, 0xEA, 0xF9, 0x69, 0xF1, 0x0A, 0xFE, 0x8E, 0x0E,
0x5C, 0x0C, 0xC8, 0xBB, 0xE8, 0xFB, 0x99, 0xEB, 0xEB, 0x19, 0x08, 0x28, 0xDA, 0xFB, 0xBA, 0xD6,
0x51, 0xCC, 0x10, 0x18, 0x3B, 0xE2, 0x5E, 0xE5, 0x42, 0x28, 0x63, 0x24, 0x3E, 0x12, 0x1C, 0x2C,
0x4B, 0x0A, 0x17, 0xE9, 0x8C, 0xFF, 0x0A, 0xFB, 0x0D, 0xED, 0x76, 0x19, 0x2C, 0xDB, 0x8E, 0xB4,
0xF3, 0xF9, 0x0A, 0xEC, 0xCB, 0xE1, 0x95, 0x07, 0x82, 0x2F, 0xCF, 0x01, 0xC4, 0xE7, 0xA3, 0x09,
0x36, 0x0F, 0xDE, 0x0F, 0x1F, 0x03, 0x61, 0xF5, 0x90, 0x00, 0x41, 0xFE, 0x47, 0xFB, 0xB8, 0xD5,
0xBA, 0x13, 0x9E, 0x0C, 0x23, 0xCD, 0x9B, 0xE3, 0xF5, 0xF9, 0x25, 0xF5, 0xF8, 0xD9, 0x6E, 0xE4,
0xE6, 0x0C, 0xD5, 0xEF, 0xEF, 0x03, 0x20, 0x2D, 0x20, 0x19, 0x32, 0xCD, 0xA0, 0xFD, 0xAD, 0x24,
0x5C, 0xCF, 0x6F, 0xF3, 0xA7, 0xEE, 0x19, 0x1E, 0xDB, 0x22, 0x03, 0x1A, 0x97, 0xD5, 0xEB, 0x19,
0x05, 0x12, 0xE7, 0x05, 0x91, 0xDF, 0xB8, 0xDF, 0x29, 0x09, 0x0A, 0xEF, 0x49, 0xF9, 0x54, 0xE5,
0x59, 0x10, 0xAD, 0xFF, 0x8F, 0xE7, 0xB9, 0xEF, 0x5F, 0x20, 0x1D, 0x19, 0x5E, 0xF3, 0x5B, 0xEE,
0x4E, 0x0B, 0x33, 0x07, 0x08, 0xEC, 0xC2, 0xC5, 0x5E, 0x01, 0x93, 0x17, 0x41, 0xEB, 0x33, 0xE3,
0x2C, 0x15, 0x57, 0xF5, 0x6A, 0xCE, 0x15, 0xF3, 0xEF, 0xFE, 0xC7, 0x31, 0xEF, 0xFB, 0x7A, 0x07,
0x8E, 0xF5, 0xCC, 0x1B, 0xCE, 0x03, 0x43, 0xC1, 0xA8, 0x04, 0x97, 0x33, 0x22, 0xED, 0xC6, 0xD5,
0x10, 0x28, 0x18, 0xFA, 0xA3, 0xC2, 0x25, 0x02, 0x8A, 0xED, 0xF1, 0x11, 0x62, 0x01, 0x87, 0x0C,
0x69, 0xF8, 0x53, 0x1D, 0x03, 0x0E, 0x1A, 0xC1, 0x92, 0xFD, 0x46, 0x33, 0x55, 0xE6, 0x54, 0xE4,
0xC7, 0x29, 0x3D, 0xED, 0xE4, 0xEE, 0xDF, 0x0C, 0x4D, 0xF6, 0x00, 0xFD, 0x13, 0x12, 0x5A, 0x09,
0xC4, 0xF8, 0xE5, 0x02, 0xB1, 0x15, 0x24, 0xE5, 0xC9, 0x01, 0xD1, 0x2C, 0xA4, 0xF8, 0x0F, 0xE4,
0xFA, 0x0D, 0xFD, 0x03, 0xF5, 0xF2, 0xBA, 0x03, 0x89, 0xFF, 0x41, 0x0B, 0x65, 0x04, 0xC3, 0x08,
0xAB, 0xF6, 0xC8, 0x07, 0x3E, 0x09, 0xA4, 0xFB, 0xA4, 0xEF, 0xD9, 0xF8, 0x7D, 0x0A, 0xA3, 0xC1,
0x61, 0x1E, 0x26, 0x0E, 0x7D, 0xE8, 0xD4, 0x04, 0xB1, 0xFD, 0x7E, 0xED, 0x7E, 0xFD, 0x1A, 0x18,
0x34, 0xF7, 0x92, 0x1A, 0xCC, 0x25, 0xEA, 0x0E, 0x33, 0xF3, 0x58, 0xFA, 0x08, 0xF4, 0x55, 0xD1,
0x52, 0x11, 0x27, 0x19, 0x19, 0xFC, 0x1B, 0x06, 0xD5, 0xF8, 0xE2, 0xFE, 0xB3, 0x11, 0x8A, 0x0F,
0x38, 0xEF, 0xF3, 0xFF, 0x05, 0x07, 0x7F, 0x0D, 0x21, 0x00, 0xB6, 0xF8, 0xB3, 0x1A, 0x4F, 0x05,
0x26, 0x17, 0x8E, 0xFC, 0xCC, 0x19, 0x62, 0x1F, 0x2A, 0xF7, 0x98, 0xD6, 0x1B, 0x02, 0xEA, 0x15,
0x8A, 0x14, 0xC1, 0xEF, 0x83, 0xF6, 0x2B, 0x0A, 0x59, 0x0D, 0xED, 0xF5, 0x0D, 0x07, 0x29, 0xA5,
0x73, 0xDE, 0x53, 0xF5, 0x91, 0x01, 0x6D, 0x2F, 0xE4, 0x31, 0xFB, 0x11, 0xDA, 0x1F, 0x52, 0x32,
0xA6, 0x02, 0x46, 0xE3, 0x52, 0xD3, 0xCD, 0xE5, 0x47, 0x0C, 0xEF, 0x04, 0xF2, 0x0C, 0xB6, 0x98,
0x17, 0xF8, 0xE7, 0x06, 0xE6, 0x0A, 0xB7, 0x29, 0xB9, 0x30, 0x2A, 0x5F, 0xD1, 0x52, 0x6F, 0x07,
0x49, 0x06, 0x86, 0xFB, 0xCA, 0xED, 0x2A, 0xFA, 0x34, 0xF8, 0xD1, 0x05, 0xC0, 0x14, 0x81, 0xEB,
0xF1, 0xDB, 0xB4, 0xEC, 0xF8, 0x15, 0xB3, 0x15, 0x8B, 0x3C, 0xFC, 0x3E, 0x85, 0x2C, 0x59, 0x17,
0xF5, 0x09, 0x0B, 0xFB, 0x25, 0xE7, 0x15, 0xFE, 0x3B, 0x0D, 0x9A, 0xDE, 0xBE, 0x23, 0x47, 0x13,
0x62, 0xD5, 0x60, 0xE1, 0x55, 0x08, 0x4F, 0x0B, 0xFE, 0x25, 0x77, 0x2C, 0xB8, 0x2B, 0x55, 0x17,
0xE0, 0x07, 0xEF, 0x01, 0xE9, 0xFB, 0x3B, 0xFB, 0xB8, 0xFF, 0xE6, 0xF6, 0x30, 0x0B, 0xB0, 0x11,
0xDC, 0x02, 0xE3, 0xF6, 0x3F, 0xEE, 0xA8, 0xE3, 0x00, 0x23, 0xE4, 0x49, 0x39, 0x21, 0xA8, 0xF3,
0x35, 0xFC, 0xF3, 0x06, 0xEA, 0x14, 0xBA, 0xF9, 0xDD, 0x0F, 0x9B, 0x0F, 0x38, 0xF8, 0x66, 0xFD,
0xD7, 0xF2, 0xC3, 0xFF, 0xE3, 0xF3, 0x7C, 0x1E, 0x3C, 0xF8, 0x90, 0x09, 0x87, 0xED, 0xBE, 0xED,
0x57, 0xF4, 0x51, 0x24, 0xAA, 0x01, 0xC5, 0x0F, 0x81, 0xF5, 0x9F, 0xF5, 0xA5, 0x16, 0x8C, 0xF2,
0xFE, 0xF4, 0xCC, 0x21, 0xD3, 0x13, 0x57, 0xF7, 0xEB, 0xFC, 0xE1, 0x0B, 0x60, 0x1B, 0x31, 0x00,
0xC8, 0x26, 0x17, 0x0F, 0x82, 0xED, 0x88, 0xFC, 0x4F, 0xD4, 0x4F, 0x0B, 0x6B, 0xE6, 0x85, 0xF7,
0x9F, 0x13, 0x24, 0x1C, 0x79, 0x14, 0xB2, 0xF2, 0xC4, 0x10, 0x73, 0xFA, 0x3B, 0x12, 0xE2, 0xE7,
0x39, 0xFF, 0xBF, 0xF8, 0xC2, 0xE9, 0xED, 0x20, 0x2D, 0x04, 0x84, 0x1C, 0x30, 0x25, 0xE1, 0xF5,
0xE3, 0xE5, 0x54, 0x1B, 0x7B, 0x08, 0xB1, 0x0F, 0xD7, 0xDE, 0x06, 0xED, 0x26, 0xCB, 0x76, 0xDE,
0xD5, 0xEB, 0x10, 0xEF, 0xDA, 0x08, 0x7D, 0x1F, 0xD2, 0x12, 0x98, 0xFD, 0x26, 0xF2, 0x27, 0xF3,
0x89, 0x02, 0xD8, 0xEE, 0xDD, 0xF5, 0x3F, 0x0D, 0xEF, 0xDE, 0x48, 0x0A, 0x7E, 0xFF, 0x39, 0xFF,
0x02, 0xDA, 0x74, 0x18, 0xA6, 0x20, 0x15, 0x2B, 0xB3, 0x15, 0x9A, 0xD1, 0x91, 0xE9, 0xFC, 0xDF,
0x87, 0xF9, 0x3E, 0xEF, 0x01, 0x16, 0x85, 0xE2, 0x79, 0xFE, 0x96, 0xFC, 0x03, 0xFE, 0x75, 0xDD,
0x2E, 0xF3, 0xF1, 0x1B, 0x4B, 0x2F, 0x63, 0x42, 0x06, 0xE1, 0xE3, 0xB4, 0x49, 0xFF, 0x5F, 0xE4,
0xAB, 0x05, 0x50, 0xF6, 0x34, 0xFE, 0x02, 0x03, 0xC8, 0x15, 0xE2, 0xF8, 0x80, 0x04, 0xA4, 0x21,
0x90, 0x03, 0x45, 0x34, 0x90, 0x31, 0x64, 0xF4, 0x2E, 0x0F, 0x85, 0x01, 0x0C, 0xEE, 0x8B, 0x01,
0xCD, 0xFB, 0x50, 0x06, 0x27, 0xF1, 0x43, 0x08, 0x99, 0x0A, 0xD3, 0x19, 0xE1, 0xE5, 0x06, 0x13,
0x16, 0xFD, 0x46, 0x0D, 0x8C, 0x1C, 0xF8, 0xE7, 0x9E, 0xF9, 0x7C, 0x1E, 0x38, 0xED, 0x07, 0x1F,
0x5F, 0x1C, 0xEE, 0x20, 0xB5, 0x12, 0x5C, 0x14, 0x87, 0xED, 0x86, 0x13, 0xB4, 0x12, 0xBD, 0x1E,
0xAD, 0x03, 0x8A, 0xF1, 0xCA, 0xE7, 0x83, 0xF5, 0xE1, 0x1D, 0x18, 0xF5, 0x0C, 0x05, 0xCC, 0xE4,
0x6C, 0xEE, 0x6F, 0xF0, 0x7A, 0x0F, 0x45, 0x16, 0x25, 0xD8, 0xB1, 0x13, 0xDA, 0xF3, 0xC1, 0xFF,
0x29, 0xFE, 0xB3, 0x22, 0x93, 0x23, 0x52, 0x05, 0x86, 0xE9, 0x15, 0x18, 0x5F, 0x0A, 0xF2, 0x27,
0x79, 0xF9, 0x47, 0xF6, 0xA8, 0xEB, 0x5B, 0xD2, 0x33, 0x10, 0x94, 0x04, 0x6E, 0x31, 0x0C, 0x07,
0x4D, 0x09, 0xBA, 0x06, 0x5B, 0x1D, 0x97, 0x21, 0x74, 0xE8, 0xB3, 0xFA, 0x7A, 0x29, 0x93, 0x19,
0xC5, 0x04, 0x19, 0x0E, 0x6D, 0x23, 0x31, 0x11, 0x77, 0x08, 0x35, 0x12, 0x04, 0xFB, 0xCF, 0x13,
0xEA, 0x04, 0xFE, 0xF5, 0xF3, 0xF3, 0x28, 0x03, 0xF6, 0x11, 0xA6, 0x03, 0xE2, 0x1B, 0xB0, 0x11,
0x32, 0xF0, 0xCD, 0x20, 0xF0, 0x12, 0xAC, 0x36, 0xB4, 0x25, 0x7D, 0x1E, 0x6E, 0xEF, 0x7E, 0xFB,
0x05, 0x09, 0xF8, 0xEA, 0x09, 0xF6, 0x96, 0xDF, 0xB1, 0xF0, 0xB6, 0xE1, 0xCD, 0x27, 0x63, 0xF5,
0xE4, 0xFA, 0x0A, 0xF5, 0x85, 0x1C, 0xC1, 0x2A, 0x4B, 0x45, 0x5E, 0xEA, 0xEA, 0xF2, 0x23, 0xE6,
0xF5, 0xE1, 0x91, 0xFE, 0x8E, 0xE2, 0x06, 0xDB, 0xEE, 0x00, 0x4B, 0x30, 0x3B, 0x2A, 0xDC, 0xF0,
0x15, 0xED, 0x38, 0xF8, 0xAC, 0x29, 0xC1, 0x17, 0xCC, 0x2A, 0xD0, 0x24, 0x98, 0xFB, 0xB8, 0x32,
0x56, 0xED, 0x60, 0xE1, 0x44, 0xE7, 0xF8, 0xF6, 0x3F, 0x10, 0xF9, 0x07, 0xF6, 0x0C, 0xBA, 0xF0,
0x95, 0x23, 0x16, 0xFE, 0x44, 0x3A, 0x4E, 0x1B, 0xC4, 0xE7, 0x71, 0x13, 0x8F, 0xF4, 0x30, 0xFB,
0x58, 0xEA, 0x4B, 0xE5, 0x33, 0xED, 0x78, 0x1E, 0x0F, 0xEF, 0x03, 0xE8, 0xE4, 0x09, 0xEB, 0xF4,
0xE2, 0xE9, 0x05, 0x37, 0x2D, 0x3F, 0x0A, 0x00, 0x48, 0xF9, 0xDA, 0xDA, 0xDD, 0xEC, 0xF1, 0x10,
0xC4, 0xEA, 0x6C, 0xFB, 0xDD, 0xFE, 0xB4, 0x0A, 0x22, 0x06, 0x1B, 0xE7, 0xD2, 0x30, 0x55, 0x13,
0xBB, 0x1F, 0xB4, 0x08, 0xF2, 0x0C, 0x41, 0xF5, 0x83, 0xEA, 0x3C, 0xD3, 0xF1, 0xE7, 0xB1, 0xF8,
0x1E, 0x1A, 0x99, 0xE5, 0xB8, 0xE9, 0xE8, 0x0D, 0xD0, 0x1F, 0x16, 0x2A, 0xE7, 0x37, 0x24, 0xC0,
0xA9, 0x09, 0xDC, 0xD6, 0x4B, 0xDE, 0x8A, 0x2F, 0xF0, 0x08, 0x9D, 0xAE, 0x78, 0x02, 0xBF, 0xA4,
0x28, 0x00, 0xB8, 0xF7, 0x4D, 0x0F, 0x10, 0xFC, 0x2D, 0x2E, 0x41, 0x38, 0x04, 0xFE, 0xD2, 0xED,
0x44, 0xDD, 0xA6, 0xDF, 0xB7, 0xF8, 0x44, 0x12, 0xA8, 0xE5, 0x5C, 0xE7, 0x85, 0xDA, 0x6E, 0xC6,
0x15, 0x13, 0x33, 0x17, 0x59, 0x0A, 0xA5, 0xCE, 0x6E, 0x19, 0xF4, 0x26, 0x91, 0x08, 0xA9, 0x17,
0xA2, 0xF0, 0xDD, 0xFF, 0xAA, 0x14, 0xB9, 0xF3, 0x99, 0xD9, 0xC3, 0xDA, 0xF2, 0xE2, 0x2E, 0xB3,
0x13, 0x00, 0x63, 0x19, 0x16, 0x04, 0xA4, 0xE6, 0x5A, 0x14, 0xED, 0x0C, 0x39, 0x18, 0x51, 0x24,
0x69, 0x1A, 0x1D, 0xF9, 0x5B, 0x25, 0x8D, 0xEC, 0xAD, 0xBE, 0x6D, 0xEF, 0x0A, 0xCC, 0xE7, 0xDD,
0x3E, 0xE4, 0x56, 0x17, 0x7D, 0x1D, 0x8B, 0xE9, 0x4D, 0xEC, 0x90, 0x01, 0x62, 0x09, 0x2D, 0x0E,
0x80, 0x25, 0xBF, 0x04, 0xD4, 0xFE, 0x5C, 0xF1, 0xAF, 0xE5, 0x57, 0x1E, 0x4F, 0x16, 0x49, 0xF1,
0xDD, 0xF4, 0x8A, 0x13, 0x7B, 0x0C, 0x47, 0xE1, 0xBC, 0xE6, 0xA2, 0xE2, 0xB5, 0xC1, 0x29, 0x29,
0x84, 0xF7, 0xD8, 0xFC, 0xFF, 0xDC, 0xF8, 0xB8, 0xD6, 0xC8, 0xB7, 0x18, 0x5E, 0xED, 0xB6, 0x2E,
0xFD, 0xE1, 0x6B, 0xBF, 0x7C, 0x05, 0xD2, 0x06, 0x88, 0xDA, 0x1E, 0x15, 0x64, 0xD5, 0x26, 0xFA,
0xAB, 0x09, 0xAF, 0x29, 0x41, 0x14, 0x41, 0x12, 0x0F, 0xF0, 0x66, 0x06, 0xD4, 0x0A, 0x84, 0x2C,
0xA1, 0xDF, 0x24, 0x01, 0x8F, 0xFD, 0x04, 0x0D, 0x9C, 0xFF, 0x50, 0xB8, 0xFB, 0x0E, 0x19, 0x21,
0xD9, 0xFF, 0x6F, 0x53, 0x94, 0x1C, 0x39, 0xF6, 0x55, 0xEA, 0x22, 0x00, 0xEA, 0xEC, 0xAD, 0xF8,
0xF0, 0xE7, 0x3C, 0x21, 0xFE, 0x3B, 0xA0, 0x11, 0x30, 0x00, 0x06, 0x0B, 0x1E, 0x14, 0x2A, 0xE9,
0xA9, 0xF2, 0x66, 0x04, 0x19, 0xF7, 0x09, 0x00, 0x27, 0x15, 0x9E, 0xFD, 0x0A, 0x03, 0x51, 0x10,
0x0A, 0x2E, 0x70, 0x13, 0x0D, 0x15, 0x8D, 0x2C, 0x2B, 0xE6, 0xCB, 0x0E, 0x30, 0x0A, 0x29, 0xE2,
0xE3, 0xFD, 0xAA, 0xEE, 0x6D, 0xED, 0x21, 0xF7, 0xFF, 0xDD, 0xB0, 0x0A, 0x32, 0xFC, 0x3A, 0x02,
0x38, 0x33, 0x33, 0x0A, 0xA2, 0xF9, 0x0F, 0x27, 0x92, 0xFC, 0xC3, 0x18, 0x28, 0x0E, 0xD5, 0xE6,
0x8D, 0xEA, 0x41, 0xFE, 0x06, 0xE0, 0x42, 0xED, 0x35, 0xDF, 0x5D, 0xDF, 0x45, 0xEA, 0x04, 0xDE,
0x60, 0x01, 0x90, 0x05, 0x07, 0xF8, 0x35, 0x2D, 0x92, 0xF9, 0x53, 0xF3, 0x07, 0x1A, 0x96, 0xF0,
0x9D, 0xF2, 0xD1, 0xEC, 0x67, 0xDB, 0x1A, 0xF7, 0x9F, 0xF3, 0x35, 0xDB, 0xEA, 0xF2, 0x93, 0xDB,
0x9C, 0xFC, 0x2B, 0xF1, 0xD5, 0xD8, 0xD7, 0x19, 0x33, 0x13, 0x24, 0xFC, 0xDE, 0xDB, 0x44, 0xD9,
0x1E, 0x08, 0xCE, 0xDE, 0xA7, 0x0B, 0xDB, 0x06, 0xB8, 0x1E, 0x0E, 0xED, 0x76, 0xEE, 0x1E, 0xFB,
0xE2, 0x02, 0xBB, 0xEA, 0xE0, 0xE2, 0x3F, 0x16, 0x3C, 0x15, 0x02, 0x14, 0xE7, 0x03, 0x30, 0xE9,
0xAB, 0x13, 0x2D, 0xDB, 0x86, 0xFB, 0xB6, 0xF2, 0x80, 0x0C, 0xC0, 0xF6, 0xFB, 0xD8, 0x3E, 0xE5,
0x90, 0xF2, 0xDE, 0xF4, 0xA2, 0xFB, 0xCD, 0xE5, 0x56, 0x03, 0x60, 0xFF, 0x66, 0x00, 0x70, 0x10,
0x00, 0x0B, 0x31, 0xFA, 0xEA, 0xF4, 0x06, 0xFB, 0x4A, 0x0C, 0x82, 0x12, 0xAB, 0xE8, 0x1F, 0x02,
0x49, 0xF3, 0x5B, 0x09, 0x17, 0xE2, 0x76, 0xF3, 0x63, 0xFC, 0x3A, 0xF0, 0x24, 0x1B, 0xBA, 0x09,
0x93, 0x1B, 0x30, 0x12, 0x78, 0x0F, 0xA3, 0x00, 0x0E, 0xE6, 0xC3, 0x0E, 0x47, 0x0A, 0x30, 0x0C,
0x43, 0xF4, 0x8D, 0xFA, 0x88, 0x18, 0x71, 0xCD, 0x6D, 0xD4, 0x23, 0x1C, 0x23, 0xF8, 0x93, 0xEC,
0x2F, 0x52, 0x67, 0x22, 0x8E, 0x31, 0x1A, 0x23, 0x25, 0x21, 0x52, 0xD9, 0x0A, 0x05, 0x3A, 0xF9,
0x9A, 0xFF, 0xDF, 0xCE, 0x02, 0x27, 0x13, 0xEA, 0x19, 0xF4, 0xB3, 0x11, 0x52, 0xE2, 0xEE, 0xE3,
0xFA, 0x3A, 0x4C, 0x14, 0x3F, 0x21, 0x36, 0x5C, 0x9B, 0x11, 0xEC, 0xF6, 0x85, 0xDD, 0x6A, 0x03,
0xEB, 0xF2, 0x84, 0xFD, 0xD7, 0x13, 0x74, 0xDD, 0xDC, 0xF7, 0x94, 0x0C, 0xAF, 0x0E, 0x86, 0xFA,
0x54, 0xF7, 0x9D, 0xDD, 0xCB, 0xFB, 0x48, 0x1A, 0x26, 0xF6, 0x4F, 0xF1, 0xCB, 0xF1, 0x40, 0xF9,
0x8D, 0xED, 0xAA, 0x1E, 0x58, 0x00, 0xC3, 0xD5, 0xF0, 0x12, 0x7E, 0xFC, 0xA9, 0x1F, 0xDC, 0x0C,
0x04, 0x1F, 0x03, 0xF8, 0x04, 0xEE, 0x45, 0x00, 0x50, 0x13, 0x0A, 0xEC, 0x29, 0xAC, 0xBD, 0xD6,
0xEA, 0xF9, 0x7F, 0x32, 0x7B, 0xEC, 0xAF, 0xF7, 0xF2, 0x1C, 0x2C, 0xE2, 0x63, 0xEF, 0x9E, 0x22,
0xC3, 0x19, 0xC4, 0xFF, 0xED, 0x0E, 0xB1, 0x0A, 0x3B, 0xE6, 0x39, 0xED, 0x1A, 0xD1, 0x2A, 0xED,
0xD1, 0x18, 0x58, 0x1C, 0x1D, 0xE0, 0x86, 0xEE, 0x7A, 0x13, 0xBE, 0xE3, 0x88, 0x09, 0xEF, 0x39,
0xDD, 0xB2, 0x35, 0xC1, 0x87, 0x01, 0x53, 0xE1, 0xE4, 0xF5, 0x8E, 0xE8, 0xA2, 0x04, 0x9A, 0xD3,
0x6B, 0x0A, 0x95, 0x01, 0x2F, 0xEE, 0xE5, 0x08, 0x9B, 0x35, 0xF3, 0xFD, 0xB9, 0x0B, 0x08, 0x21,
0x7D, 0x13, 0x9B, 0xEA, 0x69, 0x12, 0x3F, 0xF1, 0x57, 0xC6, 0x43, 0xF5, 0x9E, 0x05, 0x92, 0xC7,
0xE0, 0x09, 0x98, 0x03, 0x85, 0xD9, 0x66, 0xE6, 0x47, 0x2A, 0x5D, 0x39, 0xA3, 0x07, 0xFD, 0x02,
0xE4, 0x06, 0xFE, 0xFB, 0x02, 0xDC, 0xB1, 0xEA, 0x58, 0xF1, 0x27, 0xED, 0xD5, 0x01, 0x3E, 0x0D,
0xF6, 0x02, 0x54, 0x02, 0x63, 0x0F, 0xF8, 0xEC, 0xBB, 0x1A, 0x51, 0x0D, 0xB4, 0x0C, 0x0F, 0xCB,
0xA8, 0xDC, 0x53, 0x0F, 0x26, 0xCA, 0x03, 0xC7, 0xA6, 0x03, 0x28, 0xC3, 0x9C, 0x26, 0x33, 0x0F,
0xF1, 0x0B, 0x81, 0x21, 0x34, 0xF1, 0xA2, 0xAB, 0x37, 0x16, 0x4F, 0xE8, 0x7C, 0x21, 0xC1, 0x12,
0xD4, 0xEA, 0x2B, 0x07, 0x6E, 0xC8, 0x3F, 0xE9, 0xAF, 0x1A, 0xEC, 0xF6, 0xF7, 0x14, 0xC3, 0x19,
0x26, 0xFD, 0x48, 0x1C, 0x0F, 0xEF, 0x7F, 0xDB, 0xA8, 0xFA, 0xC1, 0xA6, 0x5A, 0x24, 0x25, 0x14,
0xD3, 0xF6, 0x87, 0xE6, 0x79, 0xDA, 0xDF, 0xEB, 0xD8, 0x07, 0xA9, 0x0F, 0xED, 0x02, 0x32, 0x15,
0xFF, 0xFD, 0xFE, 0x26, 0x43, 0xE5, 0x52, 0xF1, 0x19, 0x0F, 0x54, 0xAE, 0x14, 0x23, 0x04, 0x2D,
0x72, 0x11, 0x10, 0x15, 0x1E, 0xEA, 0x9B, 0xFB, 0xA1, 0xEC, 0xCA, 0x2E, 0xF4, 0xF0, 0x11, 0x23,
0x48, 0x00, 0x07, 0xF3, 0x96, 0xFB, 0x29, 0x0B, 0xC0, 0x12, 0x12, 0xD0, 0xAC, 0xF3, 0xC2, 0x34,
0x8A, 0xF8, 0x2A, 0x2A, 0x06, 0xF1, 0x48, 0x14, 0xA9, 0x1E, 0x65, 0x10, 0xA4, 0x13, 0x88, 0xFA,
0xE2, 0xF8, 0x39, 0xF8, 0xE3, 0xDE, 0xCE, 0x20, 0x0D, 0x1A, 0xE6, 0xF6, 0xB8, 0x00, 0x55, 0x0E,
0xE1, 0x09, 0x25, 0x07, 0xA5, 0x0F, 0xBF, 0x05, 0x95, 0x0B, 0xD3, 0x1B, 0x41, 0x12, 0x2C, 0x23,
0xA5, 0x0B, 0xC9, 0xF4, 0x17, 0x00, 0x92, 0x20, 0x1A, 0x0C, 0xB1, 0x09, 0xF2, 0xF3, 0x66, 0x09,
0xEC, 0xEA, 0x61, 0xF8, 0x46, 0x05, 0x5E, 0x21, 0x09, 0x00, 0xD5, 0xDA, 0x28, 0xE7, 0x24, 0xF3,
0xF3, 0x07, 0xC4, 0xFD, 0xEE, 0xF5, 0x80, 0x05, 0x24, 0x0C, 0x0F, 0xF3, 0x5D, 0xFA, 0x33, 0x2A,
0xF4, 0xED, 0xF2, 0xE3, 0x1A, 0xEB, 0x42, 0xFE, 0x7C, 0x1D, 0x86, 0x0D, 0x77, 0x1B, 0xAB, 0xF1,
0x43, 0x1E, 0xF6, 0x29, 0xBE, 0xE9, 0x22, 0xDC, 0x92, 0xF2, 0xC5, 0x06, 0xD0, 0x03, 0xBF, 0x0B,
0xD3, 0xF6, 0x43, 0xF3, 0x1C, 0x49, 0xBB, 0xF9, 0x0C, 0xF1, 0x81, 0x00, 0x09, 0xDF, 0xB9, 0xDB,
0x7A, 0xFE, 0xA2, 0x0A, 0x92, 0xF2, 0x21, 0xDF, 0xE5, 0x06, 0x56, 0x25, 0x61, 0xF9, 0x0D, 0x17,
0x72, 0x05, 0x41, 0xE3, 0xEF, 0xF0, 0xBF, 0xFB, 0x31, 0x0E, 0xA1, 0x1C, 0x46, 0x0B, 0xF8, 0xB0,
0x43, 0x01, 0xF2, 0xF1, 0x49, 0xFB, 0x11, 0xCC, 0x18, 0x03, 0xD4, 0x2E, 0x91, 0x17, 0xDB, 0xEC,
0xB7, 0x01, 0x54, 0x05, 0x40, 0x11, 0x30, 0x0D, 0x8F, 0x0E, 0x87, 0xE5, 0x40, 0xE6, 0x50, 0xDF,
0xDC, 0x11, 0xEB, 0xF5, 0x6D, 0xDD, 0xBA, 0xD5, 0x89, 0xE6, 0xB5, 0x2A, 0x4A, 0x1B, 0xDB, 0x04,
0x11, 0xF2, 0xB1, 0x0F, 0x37, 0x03, 0x0B, 0x1F, 0xFB, 0xFD, 0x88, 0xCE, 0x3F, 0xC8, 0x83, 0x9D,
0xBD, 0x26, 0xB2, 0x00, 0x71, 0x19, 0x00, 0xF9, 0x9B, 0x03, 0x02, 0x09, 0xFE, 0x05, 0xF2, 0xFA,
0x47, 0x16, 0xC5, 0xF3, 0xE3, 0x0B, 0x9C, 0xFE, 0x9F, 0x0C, 0x13, 0xE3, 0xE4, 0x00, 0x9B, 0xC5,
0x0B, 0x0F, 0xBD, 0x01, 0x71, 0x17, 0x06, 0xFC, 0x77, 0xF8, 0xCC, 0xF5, 0xCE, 0x1C, 0xF3, 0xF8,
0x3F, 0x0C, 0xBB, 0x2F, 0xA1, 0x14, 0x51, 0x29, 0x52, 0xF0, 0xC3, 0xF4, 0x22, 0xE0, 0xA0, 0x0D,
0x29, 0xF4, 0x62, 0xF4, 0xCD, 0x16, 0x40, 0x0A, 0xA4, 0xF5, 0xF2, 0x06, 0x90, 0xFD, 0x8E, 0xF2,
0xB0, 0x16, 0x51, 0x0B, 0x3D, 0xE2, 0x2E, 0x0D, 0x9A, 0x27, 0x84, 0xFD, 0x1B, 0xFD, 0xC4, 0x15,
0xFA, 0xE9, 0x5D, 0x10, 0x97, 0x28, 0x89, 0x25, 0x6A, 0x09, 0x51, 0xEA, 0x33, 0x0F, 0x8D, 0x1E,
0x8B, 0xF3, 0xAB, 0x01, 0x54, 0xFD, 0xCF, 0xCD, 0x61, 0x37, 0x9D, 0x08, 0x3A, 0x2F, 0xB3, 0x0B,
0x16, 0x14, 0xAC, 0x0C, 0xBF, 0xFA, 0x8F, 0x0D, 0x08, 0x23, 0x3F, 0xE5, 0xBD, 0x20, 0x2F, 0xFE,
0xFA, 0x02, 0x23, 0x0B, 0x12, 0x1D, 0xA8, 0x22, 0x1A, 0x25, 0xA9, 0x03, 0x8C, 0xFB, 0x2E, 0xF6,
0xEF, 0xED, 0x93, 0xE7, 0x3B, 0x0E, 0x03, 0xE9, 0xA0, 0x12, 0xAC, 0xDD, 0x24, 0xF1, 0x5F, 0xEA,
0x94, 0xE7, 0x4A, 0xFF, 0x1C, 0xC3, 0x78, 0x0E, 0x84, 0x04, 0x36, 0xF1, 0xE7, 0x12, 0xC8, 0xDE,
0x6E, 0xC1, 0xE5, 0x0E, 0x9F, 0x1A, 0x51, 0xE2, 0x97, 0x60, 0x8E, 0xF3, 0xD6, 0xE0, 0x73, 0x1E,
0x42, 0xF6, 0x62, 0x13, 0x8E, 0x30, 0x3D, 0x2D, 0x27, 0x0F, 0x81, 0x0F, 0x97, 0x06, 0x54, 0x0B,
0xAA, 0xC7, 0xB8, 0xF6, 0x2D, 0xF7, 0x28, 0x07, 0x02, 0x1B, 0x43, 0x03, 0x59, 0xFF, 0x60, 0xEF,
0xDA, 0x0A, 0x08, 0xFD, 0xAF, 0x05, 0xE0, 0x1E, 0x86, 0x07, 0x61, 0x24, 0x03, 0x0B, 0x33, 0x1E,
0x06, 0xED, 0x9E, 0xFE, 0xBE, 0x10, 0xF8, 0x00, 0xEC, 0x03, 0x16, 0xF7, 0x6D, 0xF8, 0x6F, 0xFA,
0x90, 0xE2, 0xFC, 0xFD, 0xA1, 0x0B, 0xDB, 0xE1, 0x32, 0xE0, 0x81, 0xFE, 0x92, 0xBF, 0x69, 0xDE,
0x45, 0x0F, 0xAC, 0xF2, 0xAC, 0x03, 0x90, 0xEB, 0xF7, 0x0C, 0xF3, 0x06, 0x78, 0xF4, 0xF3, 0x05,
0xDF, 0xF1, 0xC3, 0xED, 0x39, 0xEC, 0x3E, 0x01, 0x0A, 0xF1, 0x37, 0xF4, 0x95, 0x15, 0x79, 0xFD,
0x4D, 0x01, 0x5B, 0xFE, 0x27, 0x07, 0x93, 0xF4, 0x0C, 0x20, 0xF0, 0x17, 0xA0, 0x04, 0x02, 0x0C,
0xC5, 0x09, 0xB7, 0xE9, 0x73, 0xE1, 0xBF, 0x05, 0x68, 0xDA, 0xCC, 0xFE, 0xAC, 0x16, 0xB7, 0xF6,
0x76, 0x01, 0x7F, 0x10, 0x8B, 0x00, 0x55, 0x11, 0xD2, 0x1E, 0xD9, 0x04, 0xF3, 0x1B, 0xFB, 0x01,
0xB8, 0x1E, 0xAF, 0x16, 0xB7, 0xD9, 0x26, 0xFA, 0xD1, 0x08, 0xAB, 0xEA, 0xD8, 0xF3, 0x40, 0xE9,
0xF3, 0x3B, 0xB7, 0xE3, 0x76, 0xE8, 0x09, 0x2B, 0x17, 0xDB, 0x4E, 0x07, 0xA5, 0x21, 0x0C, 0x25,
0x4C, 0xE2, 0x8C, 0x2C, 0x36, 0x50, 0xD5, 0xF7, 0x6B, 0xFB, 0x94, 0x12, 0xC0, 0x10, 0xB2, 0x1A,
0x52, 0x3D, 0x3D, 0xDA, 0x4F, 0xE2, 0x2B, 0x2D, 0x53, 0xC0, 0x4C, 0x2C, 0xFE, 0xF4, 0x05, 0xF1,
0x04, 0x00, 0xA2, 0x07, 0x4C, 0x17, 0xCF, 0xFF, 0x0F, 0xD1, 0x49, 0x01, 0x65, 0xFC, 0xD7, 0xC9,
0x93, 0x1A, 0x42, 0xFC, 0x83, 0xE4, 0x77, 0x0B, 0x0D, 0xE8, 0x38, 0x14, 0x4A, 0xBF, 0x1B, 0xE6,
0x67, 0xF1, 0x85, 0xF8, 0x76, 0x35, 0x1A, 0x0A, 0x33, 0xF4, 0x77, 0x00, 0xBB, 0x10, 0x10, 0x0A,
0x1A, 0x10, 0xF3, 0xF5, 0xF8, 0x08, 0xEB, 0x0D, 0x69, 0xEB, 0x3B, 0xD3, 0x70, 0xFF, 0x5F, 0xE7,
0xB2, 0x0D, 0x2B, 0xE2, 0x0A, 0x2A, 0xC5, 0x07, 0x02, 0x16, 0xF1, 0xF8, 0x50, 0x25, 0xEE, 0xF9,
0xA9, 0x07, 0x46, 0xE9, 0xE4, 0x0F, 0x08, 0x16, 0xB7, 0x00, 0xC8, 0xEF, 0xCE, 0x13, 0xC0, 0xF2,
0xA1, 0xF0, 0x01, 0xFA, 0x54, 0x20, 0x4D, 0xFD, 0x67, 0x14, 0xFC, 0x0F, 0x2E, 0x02, 0x2C, 0x09,
0x12, 0x00, 0xAC, 0xF1, 0x69, 0xFF, 0x89, 0xDF, 0xDC, 0xFC, 0x1D, 0xFC, 0xC4, 0xE0, 0x98, 0x1F,
0x73, 0x19, 0x40, 0xC0, 0xB0, 0xF9, 0xC4, 0xFB, 0xA5, 0xF3, 0xE8, 0xE8, 0x6B, 0xFE, 0xB2, 0x0A,
0xA3, 0xE4, 0x0F, 0x14, 0xFA, 0x19, 0x4C, 0xF2, 0xA9, 0x1E, 0x57, 0xFE, 0xA7, 0xF5, 0xAB, 0x08,
0x9A, 0xF3, 0x7D, 0xFF, 0xD5, 0xEC, 0x1F, 0x09, 0xD1, 0xE5, 0xDE, 0x02, 0xF2, 0xEA, 0xB8, 0x16,
0x49, 0xD5, 0x5C, 0x34, 0xF5, 0x08, 0x69, 0xCD, 0x0A, 0x16, 0x64, 0x19, 0xB1, 0x02, 0x7C, 0xE8,
0x52, 0x0A, 0x94, 0x0E, 0xE1, 0xCA, 0x0B, 0xE8, 0x80, 0x2A, 0xC0, 0xFA, 0xE3, 0xFD, 0x16, 0x13,
0xF5, 0xF7, 0xF5, 0xE8, 0xEB, 0xEE, 0xD5, 0xF9, 0xD5, 0x14, 0xD6, 0xFE, 0x13, 0x0A, 0xB8, 0x26,
0xDC, 0x23, 0x8E, 0xD9, 0x17, 0xED, 0xF6, 0xFA, 0x1D, 0xED, 0xDA, 0x0F, 0xD9, 0x0D, 0xEC, 0xE9,
0x69, 0x1A, 0x1B, 0xFC, 0x2D, 0xFD, 0xFF, 0x05, 0xA4, 0x1A, 0x84, 0xF9, 0xC7, 0xF0, 0x78, 0x37,
0x38, 0x0B, 0x83, 0xF3, 0x47, 0xDB, 0x66, 0xE6, 0x4C, 0xEB, 0x9C, 0xEB, 0xBE, 0x09, 0x77, 0x09,
0xB3, 0x1C, 0x6B, 0x0D, 0x3F, 0x1C, 0x9C, 0x00, 0x34, 0x1C, 0xC3, 0x08, 0xFE, 0xFB, 0x75, 0x04,
0xC6, 0xF2, 0x86, 0x13, 0x44, 0xE3, 0x7A, 0xD4, 0x0E, 0xD4, 0x7C, 0xE3, 0x4F, 0x0E, 0x54, 0x1A,
0x42, 0x07, 0x10, 0x0F, 0x24, 0x28, 0x0C, 0x00, 0xBB, 0xFC, 0x23, 0xEE, 0xC9, 0xCC, 0x00, 0xEF,
0xA6, 0xF0, 0xA7, 0xFF, 0xB5, 0xD2, 0x63, 0xEA, 0x5E, 0xDB, 0xBB, 0x03, 0x81, 0x0B, 0x94, 0x0E,
0xD3, 0xFC, 0x13, 0x11, 0x2E, 0x15, 0xCD, 0x01, 0x55, 0x02, 0x64, 0xE4, 0x31, 0xDB, 0x8D, 0x0B,
0xBE, 0xE4, 0x63, 0xE3, 0x76, 0xE1, 0xBB, 0xCA, 0x0A, 0xF2, 0xA0, 0x13, 0x1A, 0x20, 0x55, 0xF5,
0xBF, 0x0A, 0x17, 0x14, 0x96, 0x0C, 0xFB, 0xFE, 0x79, 0x1B, 0x5F, 0xF2, 0xBD, 0x05, 0xB4, 0x15,
0x78, 0xEC, 0x3A, 0xF2, 0x0A, 0xE4, 0x84, 0xEB, 0x99, 0xF6, 0xDE, 0x0A, 0xA4, 0x0A, 0x11, 0xE0,
0xF0, 0xE9, 0xB8, 0x0C, 0xF6, 0xFF, 0xA4, 0xFA, 0xED, 0x05, 0x83, 0xEC, 0xAB, 0x07, 0xF0, 0x03,
0x36, 0xE4, 0xF0, 0xEC, 0x3C, 0xFA, 0xC9, 0xF4, 0xB7, 0x02, 0xDA, 0x0B, 0x2F, 0xF8, 0x27, 0x09,
0x4F, 0xF1, 0x1C, 0x13, 0xB2, 0x08, 0x86, 0xED, 0xDF, 0x28, 0xE9, 0xE9, 0x40, 0xF8, 0xDA, 0xF7,
0x6C, 0xF3, 0x0D, 0xD1, 0x49, 0x15, 0x67, 0x0D, 0x38, 0x30, 0x63, 0x03, 0x0D, 0xDC, 0x98, 0x09,
0x5A, 0xFB, 0x3F, 0xFE, 0x08, 0x06, 0x4A, 0xD6, 0xC8, 0xE6, 0x1B, 0xEF, 0xEA, 0xFD, 0x43, 0xCB,
0x3A, 0xF3, 0x25, 0x03, 0x5E, 0xEE, 0xBC, 0x00, 0x55, 0xFB, 0xAA, 0x11, 0x55, 0xE0, 0xA7, 0x0A,
0xD3, 0xF2, 0x3D, 0x02, 0x4C, 0x0C, 0xD7, 0xE3, 0xA6, 0xD3, 0xD6, 0xDA, 0x90, 0xFC, 0x93, 0xB3,
0xDD, 0xD8, 0x42, 0xF6, 0x32, 0x0A, 0xBE, 0x16, 0x8D, 0xDA, 0xB3, 0xCD, 0x5E, 0x0A, 0x99, 0x03,
0xA3, 0xEF, 0x95, 0xEA, 0x16, 0xFE, 0x8A, 0xDB, 0x89, 0xFA, 0xB1, 0xF8, 0x4E, 0x10, 0x05, 0xC4,
0x31, 0xD7, 0xEC, 0xDE, 0xFD, 0x06, 0x1B, 0xEA, 0x69, 0xDD, 0x91, 0xF0, 0x3F, 0xDC, 0x59, 0xF0,
0x55, 0xFD, 0xF6, 0xE4, 0x55, 0xEF, 0x88, 0xD3, 0xA9, 0x09, 0xED, 0x0A, 0xA8, 0xF2, 0x2E, 0xE1,
0xBB, 0xA2, 0x5B, 0xE3, 0x5E, 0xF7, 0xD8, 0x04, 0x1B, 0xEA, 0xD4, 0xEB, 0x43, 0x08, 0xB9, 0xD9,
0xB9, 0x06, 0x7A, 0xF7, 0x68, 0xE7, 0xE3, 0xFE, 0x00, 0xE7, 0x5D, 0x20, 0xDC, 0x20, 0xB5, 0xF1,
0x42, 0xC3, 0xEC, 0xD9, 0x5A, 0xEB, 0xF4, 0x15, 0x3A, 0xD7, 0x79, 0xEF, 0xCF, 0xFE, 0xA5, 0xD8,
0x2E, 0x0F, 0xB4, 0xFA, 0x78, 0xEA, 0x54, 0x16, 0xEA, 0x1A, 0x11, 0x02, 0x6B, 0xF4, 0x13, 0x06,
0xE8, 0xA9, 0x04, 0xF6, 0x39, 0x00, 0xF4, 0xE9, 0xA5, 0xEF, 0xAD, 0xE3, 0xBA, 0xD4, 0xE6, 0x03,
0x33, 0x00, 0x1E, 0x00, 0x82, 0xF7, 0xBD, 0x1E, 0x65, 0x11, 0x1F, 0xEA, 0x31, 0x0F, 0x07, 0xF9,
0xB2, 0x0D, 0xA6, 0x25, 0x74, 0x0A, 0xDF, 0x00, 0x47, 0x03, 0xED, 0x0B, 0xF4, 0xF6, 0x15, 0x0C,
0x34, 0xFB, 0xEA, 0x15, 0x50, 0x0B, 0xC1, 0x1D, 0x6C, 0xFF, 0x52, 0xE3, 0xFF, 0xEA, 0x5B, 0x09,
0x8F, 0xFF, 0x93, 0xD9, 0xA5, 0x22, 0x01, 0x20, 0x66, 0xF9, 0xF2, 0xFC, 0xA6, 0xEE, 0x8B, 0x01,
0xBA, 0xE2, 0x60, 0x16, 0x40, 0x26, 0x6A, 0x17, 0x5F, 0x07, 0xB5, 0xFC, 0xA7, 0xE3, 0x93, 0xEB,
0x5E, 0xFA, 0xB3, 0x2D, 0x07, 0xEE, 0x2E, 0x2C, 0x24, 0x01, 0xA1, 0x0E, 0x48, 0x13, 0x86, 0xC8,
0x9A, 0xEF, 0xBE, 0x2B, 0x77, 0x36, 0xCF, 0x01, 0xF1, 0xF2, 0xB2, 0xC6, 0xF4, 0xB9, 0x2B, 0xF0,
0x4A, 0xF5, 0x05, 0x15, 0x75, 0xF1, 0xC3, 0x08, 0x26, 0x1B, 0xFA, 0xFA, 0x67, 0xFD, 0xEA, 0x0B,
